{
  "version": "1.0",
  "truncation": null,
  "padding": null,
  "added_tokens": [
    {
      "id": 0,
      "content": "<|startoftext|>",
      "single_word": false,
      "lstrip": false,
      "rstrip": false,
      "normalized": false,
      "special": true
    },
    {
      "id": 1,
      "content": "<|endoftext|>",
      "single_word": false,
      "lstrip": false,
      "rstrip": false,
      "normalized": false,
      "special": true
    },
    {
      "id": 2,
      "content": "<|pad|>",
      "single_word": false,
      "lstrip": false,
      "rstrip": false,
      "normalized": false,
      "special": true
    },
    {
      "id": 3,
      "content": "<|sep|>",
      "single_word": false,
      "lstrip": false,
      "rstrip": false,
      "normalized": false,
      "special": true
    },
    {
      "id": 4,
      "content": "<|unk|>",
      "single_word": false,
      "lstrip": false,
      "rstrip": false,
      "normalized": false,
      "special": true
    }
  ],
  "normalizer": null,
  "pre_tokenizer": {
    "type": "ByteLevel",
    "add_prefix_space": true,
    "trim_offsets": true,
    "use_regex": true
  },
  "post_processor": null,
  "decoder": {
    "type": "ByteLevel",
    "add_prefix_space": true,
    "trim_offsets": true,
    "use_regex": true
  },
  "model": {
    "type": "BPE",
    "dropout": null,
    "unk_token": null,
    "continuing_subword_prefix": null,
    "end_of_word_suffix": null,
    "fuse_unk": false,
    "byte_fallback": false,
    "ignore_merges": false,
    "vocab": {
      "<|startoftext|>": 0,
      "<|endoftext|>": 1,
      "<|pad|>": 2,
      "<|sep|>": 3,
      "<|unk|>": 4,
      "!": 5,
      "\"": 6,
      "#": 7,
      "$": 8,
      "%": 9,
      "&": 10,
      "'": 11,
      "(": 12,
      ")": 13,
      "*": 14,
      "+": 15,
      ",": 16,
      "-": 17,
      ".": 18,
      "/": 19,
      "0": 20,
      "1": 21,
      "2": 22,
      "3": 23,
      "4": 24,
      "5": 25,
      "6": 26,
      "7": 27,
      "8": 28,
      "9": 29,
      ":": 30,
      ";": 31,
      "<": 32,
      "=": 33,
      ">": 34,
      "?": 35,
      "@": 36,
      "A": 37,
      "B": 38,
      "C": 39,
      "D": 40,
      "E": 41,
      "F": 42,
      "G": 43,
      "H": 44,
      "I": 45,
      "J": 46,
      "K": 47,
      "L": 48,
      "M": 49,
      "N": 50,
      "O": 51,
      "P": 52,
      "Q": 53,
      "R": 54,
      "S": 55,
      "T": 56,
      "U": 57,
      "V": 58,
      "W": 59,
      "X": 60,
      "Y": 61,
      "Z": 62,
      "[": 63,
      "\\": 64,
      "]": 65,
      "^": 66,
      "_": 67,
      "`": 68,
      "a": 69,
      "b": 70,
      "c": 71,
      "d": 72,
      "e": 73,
      "f": 74,
      "g": 75,
      "h": 76,
      "i": 77,
      "j": 78,
      "k": 79,
      "l": 80,
      "m": 81,
      "n": 82,
      "o": 83,
      "p": 84,
      "q": 85,
      "r": 86,
      "s": 87,
      "t": 88,
      "u": 89,
      "v": 90,
      "w": 91,
      "x": 92,
      "y": 93,
      "z": 94,
      "|": 95,
      "}": 96,
      "~": 97,
      "¡": 98,
      "¢": 99,
      "£": 100,
      "¤": 101,
      "¥": 102,
      "¦": 103,
      "§": 104,
      "¨": 105,
      "©": 106,
      "ª": 107,
      "«": 108,
      "¬": 109,
      "®": 110,
      "¯": 111,
      "°": 112,
      "±": 113,
      "²": 114,
      "³": 115,
      "´": 116,
      "µ": 117,
      "¶": 118,
      "·": 119,
      "¸": 120,
      "¹": 121,
      "º": 122,
      "»": 123,
      "¼": 124,
      "½": 125,
      "¾": 126,
      "¿": 127,
      "Â": 128,
      "Ã": 129,
      "Ä": 130,
      "Å": 131,
      "Æ": 132,
      "Ç": 133,
      "È": 134,
      "É": 135,
      "Ê": 136,
      "Ë": 137,
      "Ì": 138,
      "Í": 139,
      "Î": 140,
      "Ï": 141,
      "Ð": 142,
      "Ñ": 143,
      "Ò": 144,
      "Ó": 145,
      "Ô": 146,
      "Õ": 147,
      "Ö": 148,
      "×": 149,
      "Ø": 150,
      "Ù": 151,
      "Ú": 152,
      "Û": 153,
      "Ü": 154,
      "Ý": 155,
      "Þ": 156,
      "ß": 157,
      "à": 158,
      "á": 159,
      "â": 160,
      "ã": 161,
      "ä": 162,
      "å": 163,
      "æ": 164,
      "ç": 165,
      "è": 166,
      "é": 167,
      "ê": 168,
      "ë": 169,
      "ì": 170,
      "í": 171,
      "î": 172,
      "ï": 173,
      "ð": 174,
      "ñ": 175,
      "ò": 176,
      "ó": 177,
      "ô": 178,
      "Ā": 179,
      "ā": 180,
      "Ă": 181,
      "ă": 182,
      "Ą": 183,
      "ą": 184,
      "Ć": 185,
      "ć": 186,
      "Ĉ": 187,
      "ĉ": 188,
      "Ď": 189,
      "ď": 190,
      "Đ": 191,
      "đ": 192,
      "Ē": 193,
      "ē": 194,
      "Ĕ": 195,
      "ĕ": 196,
      "Ė": 197,
      "ė": 198,
      "Ę": 199,
      "ę": 200,
      "Ě": 201,
      "ě": 202,
      "ğ": 203,
      "Ġ": 204,
      "ġ": 205,
      "Ģ": 206,
      "ģ": 207,
      "Ĥ": 208,
      "ĥ": 209,
      "Ħ": 210,
      "ħ": 211,
      "Ĩ": 212,
      "ĩ": 213,
      "Ī": 214,
      "ī": 215,
      "Ĭ": 216,
      "ĭ": 217,
      "Į": 218,
      "į": 219,
      "İ": 220,
      "ı": 221,
      "Ĳ": 222,
      "ĳ": 223,
      "Ĵ": 224,
      "ĵ": 225,
      "Ķ": 226,
      "ķ": 227,
      "ĸ": 228,
      "Ĺ": 229,
      "ĺ": 230,
      "Ļ": 231,
      "ļ": 232,
      "Ľ": 233,
      "ľ": 234,
      "Ŀ": 235,
      "ŀ": 236,
      "Ł": 237,
      "ł": 238,
      "Ń": 239,
      "Ġt": 240,
      "Ġa": 241,
      "in": 242,
      "he": 243,
      "re": 244,
      "on": 245,
      "Ġthe": 246,
      "er": 247,
      "Ġs": 248,
      "Ġw": 249,
      "Ġo": 250,
      "at": 251,
      "nd": 252,
      "Ġc": 253,
      "it": 254,
      "ou": 255,
      "or": 256,
      "es": 257,
      "is": 258,
      "Ġf": 259,
      "en": 260,
      "Ġb": 261,
      "ing": 262,
      "Ġp": 263,
      "an": 264,
      "ed": 265,
      "al": 266,
      "Ġto": 267,
      "Ġm": 268,
      "Ġand": 269,
      "ar": 270,
      "Ġin": 271,
      "Ġof": 272,
      "Ġd": 273,
      "ic": 274,
      "le": 275,
      "om": 276,
      "ion": 277,
      "Ġh": 278,
      "as": 279,
      "Ġth": 280,
      "ll": 281,
      "Ġy": 282,
      "ent": 283,
      "Ġl": 284,
      "ve": 285,
      "Ġe": 286,
      "ĠT": 287,
      "ro": 288,
      "Ġre": 289,
      "ĠI": 290,
      "st": 291,
      "Ġn": 292,
      "Ġyou": 293,
      "ct": 294,
      "Ġg": 295,
      "ly": 296,
      "et": 297,
      "âĢ": 298,
      "Ġis": 299,
      "ĠS": 300,
      "Ġfor": 301,
      "Ġbe": 302,
      "ĠA": 303,
      "ut": 304,
      "ot": 305,
      "Ġon": 306,
      "id": 307,
      "ur": 308,
      "ow": 309,
      "ĠC": 310,
      "ay": 311,
      "us": 312,
      "ce": 313,
      "im": 314,
      "ig": 315,
      "ra": 316,
      "ch": 317,
      "ith": 318,
      "ver": 319,
      "ation": 320,
      "il": 321,
      "Ġst": 322,
      "Ġthat": 323,
      "ol": 324,
      "Ġwith": 325,
      "ad": 326,
      "am": 327,
      "ĠM": 328,
      "ir": 329,
      "Ġit": 330,
      "ĠThe": 331,
      "se": 332,
      "Ġwe": 333,
      "âĢĻ": 334,
      "ĠW": 335,
      "ĠP": 336,
      "Ġan": 337,
      "Ġpro": 338,
      "ill": 339,
      "ĠB": 340,
      "Ġas": 341,
      "Ġare": 342,
      "ers": 343,
      "Ġhe": 344,
      "Ġwh": 345,
      "if": 346,
      "un": 347,
      "ge": 348,
      "ke": 349,
      "Ġha": 350,
      "Ġcon": 351,
      "ter": 352,
      "Ġor": 353,
      "ul": 354,
      "ess": 355,
      "oo": 356,
      "Ġcom": 357,
      "ĠH": 358,
      "ate": 359,
      "ĠD": 360,
      "pp": 361,
      "her": 362,
      "ĠF": 363,
      "ment": 364,
      "est": 365,
      "ab": 366,
      "Ġyour": 367,
      "ld": 368,
      "Ġde": 369,
      "Ġat": 370,
      "Ġse": 371,
      "Ġmo": 372,
      "ck": 373,
      "ri": 374,
      "Ġex": 375,
      "Ġne": 376,
      "rom": 377,
      "pe": 378,
      "igh": 379,
      "ĠR": 380,
      "qu": 381,
      "Ġ1": 382,
      "ort": 383,
      "ure": 384,
      "ist": 385,
      "Ġv": 386,
      "ĠL": 387,
      "ity": 388,
      "ant": 389,
      "ive": 390,
      "Ġ2": 391,
      "Ġhave": 392,
      "Ġcan": 393,
      "ĠG": 394,
      "um": 395,
      "art": 396,
      "ĠE": 397,
      "Ġwas": 398,
      "ust": 399,
      "Ġ(": 400,
      "Ġus": 401,
      "op": 402,
      "Ġfrom": 403,
      "Ġthis": 404,
      "em": 405,
      "ĠN": 406,
      "ain": 407,
      "Ġal": 408,
      "th": 409,
      "Ġr": 410,
      "Ġsh": 411,
      "ĠO": 412,
      "ies": 413,
      "Ġch": 414,
      "el": 415,
      "os": 416,
      "Ġwill": 417,
      "Ġby": 418,
      "Ġsu": 419,
      "Ġnot": 420,
      "nt": 421,
      "and": 422,
      "Ġu": 423,
      "res": 424,
      "all": 425,
      "ome": 426,
      "ight": 427,
      "Ġle": 428,
      "ard": 429,
      "ĠâĢ": 430,
      "ud": 431,
      "out": 432,
      "iv": 433,
      "ie": 434,
      "Ġdo": 435,
      "Ġab": 436,
      "Ġwor": 437,
      "ial": 438,
      "our": 439,
      "red": 440,
      "ould": 441,
      "Ġpl": 442,
      "Ġall": 443,
      "te": 444,
      "ide": 445,
      "per": 446,
      "rou": 447,
      "ĠTh": 448,
      "gh": 449,
      "ine": 450,
      "Ġso": 451,
      "Ġma": 452,
      "Ġcomp": 453,
      "fe": 454,
      "Ġj": 455,
      "age": 456,
      "ice": 457,
      "ast": 458,
      "Ġk": 459,
      "pt": 460,
      "ally": 461,
      "Ġad": 462,
      "ction": 463,
      "ear": 464,
      "00": 465,
      "Ġhas": 466,
      "ĠJ": 467,
      "lo": 468,
      "Ġwhe": 469,
      "king": 470,
      "ag": 471,
      "able": 472,
      "ĠIn": 473,
      "Ġen": 474,
      "ac": 475,
      "Ġme": 476,
      "ther": 477,
      "so": 478,
      "ind": 479,
      "od": 480,
      "Ġbut": 481,
      "ich": 482,
      "ip": 483,
      "ack": 484,
      "Ġout": 485,
      "Ġour": 486,
      "are": 487,
      "Ġup": 488,
      "ĠU": 489,
      "ite": 490,
      "very": 491,
      "one": 492,
      "ated": 493,
      "Ġlo": 494,
      "cc": 495,
      "ry": 496,
      "Ġmore": 497,
      "Ġtheir": 498,
      "ĠY": 499,
      "ime": 500,
      "Ġte": 501,
      "du": 502,
      "ood": 503,
      "Ġim": 504,
      "'s": 505,
      "iz": 506,
      "Ġthey": 507,
      "ong": 508,
      "for": 509,
      "ore": 510,
      "ous": 511,
      "Ġmy": 512,
      "Ġone": 513,
      "Ġcont": 514,
      "ks": 515,
      "ans": 516,
      "ance": 517,
      "ib": 518,
      "Ġcl": 519,
      "ions": 520,
      "ign": 521,
      "Ġman": 522,
      "ike": 523,
      "Ġinc": 524,
      "ost": 525,
      "Ġun": 526,
      "Ġfe": 527,
      "Ġres": 528,
      "ĠIt": 529,
      "ru": 530,
      "ĠWe": 531,
      "Ġapp": 532,
      "Ġabout": 533,
      "act": 534,
      "Ġwhich": 535,
      "reat": 536,
      "ire": 537,
      "ult": 538,
      "Ġqu": 539,
      "ase": 540,
      "ail": 541,
      "ace": 542,
      "ĠK": 543,
      "ations": 544,
      "Ġper": 545,
      "ia": 546,
      "erv": 547,
      "og": 548,
      "ree": 549,
      "Ġalso": 550,
      "Ġ20": 551,
      "Ġoff": 552,
      "Ġtime": 553,
      "Ġany": 554,
      "ap": 555,
      "Ġgo": 556,
      "Ġother": 557,
      "Ġwho": 558,
      "ĠThis": 559,
      "to": 560,
      "ach": 561,
      "ne": 562,
      "ame": 563,
      "ber": 564,
      "ass": 565,
      "form": 566,
      "vel": 567,
      "Ġsp": 568,
      "ical": 569,
      "ile": 570,
      "ĠV": 571,
      "ary": 572,
      "ep": 573,
      "ven": 574,
      "Ġget": 575,
      "ount": 576,
      "Ġdis": 577,
      "ays": 578,
      "Ġyear": 579,
      "Ġpart": 580,
      "ff": 581,
      "ence": 582,
      "ue": 583,
      "Ġsome": 584,
      "Ġlike": 585,
      "ĠSt": 586,
      "ook": 587,
      "ents": 588,
      "Ġnew": 589,
      "Ġsa": 590,
      "own": 591,
      "Ġ3": 592,
      "ition": 593,
      "Ġta": 594,
      "Ġthem": 595,
      "ub": 596,
      "Ġtra": 597,
      "ĠCh": 598,
      "Ġneed": 599,
      "ĠâĢľ": 600,
      "ings": 601,
      "ress": 602,
      "pl": 603,
      "âĢĿ": 604,
      "ick": 605,
      "ors": 606,
      "Ġhis": 607,
      "ond": 608,
      "Ġ\"": 609,
      "Ġspe": 610,
      "Ġover": 611,
      "ark": 612,
      "Ġar": 613,
      "cial": 614,
      "Ġro": 615,
      "Ġthere": 616,
      "Ġrec": 617,
      "Ġif": 618,
      "Ġwhen": 619,
      "Ġsc": 620,
      "Ġbeen": 621,
      "Ġimp": 622,
      "Ġco": 623,
      "Ġ201": 624,
      "Ġpe": 625,
      "ild": 626,
      "av": 627,
      "Ġwork": 628,
      "Ġpre": 629,
      "Ġkn": 630,
      "Ġag": 631,
      "ens": 632,
      "Ġwhat": 633,
      "Ġacc": 634,
      "Ġwould": 635,
      "Ġthan": 636,
      "Ġdes": 637,
      "ough": 638,
      "int": 639,
      "wn": 640,
      "Ġwere": 641,
      "ish": 642,
      "Ġam": 643,
      "ound": 644,
      "ater": 645,
      "Ġjust": 646,
      "Ġhow": 647,
      "ren": 648,
      "ord": 649,
      "rough": 650,
      "nder": 651,
      "Ġcomm": 652,
      "Ġhad": 653,
      "Ġprov": 654,
      "lp": 655,
      "Ġinto": 656,
      "ĠHe": 657,
      "Ġbec": 658,
      "ĠYou": 659,
      "ak": 660,
      "use": 661,
      "lud": 662,
      "vers": 663,
      "irst": 664,
      "lic": 665,
      "Ġ-": 666,
      "Ġhelp": 667,
      "ang": 668,
      "ople": 669,
      "Ġserv": 670,
      "Ġmay": 671,
      "ning": 672,
      "ory": 673,
      "Ġmake": 674,
      "old": 675,
      "Ġits": 676,
      "Ġadd": 677,
      "Ġno": 678,
      "Ġbu": 679,
      "Ġuse": 680,
      "fter": 681,
      "Ġpr": 682,
      "ram": 683,
      "ces": 684,
      "rent": 685,
      "Ġem": 686,
      ").": 687,
      "ĠIf": 688,
      "ual": 689,
      "Ġher": 690,
      "ments": 691,
      "itt": 692,
      "Ġtr": 693,
      "ĠWh": 694,
      "Ġprodu": 695,
      "Ġmost": 696,
      "we": 697,
      "Ġpeople": 698,
      "ose": 699,
      "Ġind": 700,
      "ious": 701,
      "Ġknow": 702,
      "oc": 703,
      "ft": 704,
      "Ġinclud": 705,
      "les": 706,
      "ices": 707,
      "Ġthrough": 708,
      "Ġwell": 709,
      "tern": 710,
      "Ġonly": 711,
      "cts": 712,
      "ates": 713,
      "ons": 714,
      "Ġtw": 715,
      "Ġ4": 716,
      "Ġfirst": 717,
      "ily": 718,
      "hed": 719,
      "je": 720,
      "ink": 721,
      "ull": 722,
      "Ġbet": 723,
      "Ġevery": 724,
      "end": 725,
      "ĠâĢĵ": 726,
      "round": 727,
      "Ġcons": 728,
      "Ġpo": 729,
      "ating": 730,
      "ise": 731,
      "ian": 732,
      "Ġ5": 733,
      "Ġph": 734,
      "Ġthese": 735,
      "..": 736,
      "ities": 737,
      "ause": 738,
      "Ġwant": 739,
      "Ġunder": 740,
      "ific": 741,
      "ade": 742,
      "Ġsupp": 743,
      "Ġexper": 744,
      "bs": 745,
      "Ġsee": 746,
      "Ġback": 747,
      "ĠAs": 748,
      "hen": 749,
      "Ġdif": 750,
      "Ġvery": 751,
      "Ġrep": 752,
      "iness": 753,
      "Ġcol": 754,
      "Ġsy": 755,
      "ĠRe": 756,
      "amp": 757,
      "mer": 758,
      "ph": 759,
      "cess": 760,
      "iew": 761,
      "Ġact": 762,
      "Ġreg": 763,
      "li": 764,
      "oth": 765,
      "ful": 766,
      "lect": 767,
      "ert": 768,
      "ict": 769,
      "xt": 770,
      "ange": 771,
      "Ġmany": 772,
      "Ġra": 773,
      "Ġbus": 774,
      "Ġ19": 775,
      "ced": 776,
      "Ġstud": 777,
      "day": 778,
      "Ġinv": 779,
      "Ġgood": 780,
      "Ġtwo": 781,
      "any": 782,
      "row": 783,
      "ible": 784,
      "Ġfl": 785,
      "Ġke": 786,
      "urn": 787,
      "uch": 788,
      "Ġgreat": 789,
      "fore": 790,
      "'t": 791,
      "Ġway": 792,
      "fect": 793,
      "ures": 794,
      "ife": 795,
      "als": 796,
      "Ġshe": 797,
      "ility": 798,
      "sel": 799,
      "ting": 800,
      "Ġsm": 801,
      "iss": 802,
      "Ġyears": 803,
      "Ġwhere": 804,
      "eth": 805,
      "Ġdec": 806,
      "Ġpos": 807,
      "Ġshould": 808,
      "Ġrem": 809,
      "ving": 810,
      "ys": 811,
      "Ġafter": 812,
      "Ġcould": 813,
      "erson": 814,
      "Ġbest": 815,
      "ased": 816,
      "Ġeven": 817,
      "Ġev": 818,
      "ower": 819,
      "ool": 820,
      "get": 821,
      "Ġent": 822,
      "ience": 823,
      "Ġthen": 824,
      "Ġinform": 825,
      "ĠNe": 826,
      "Ġown": 827,
      "stem": 828,
      "ĠFor": 829,
      "Ġac": 830,
      "ular": 831,
      "Ġinst": 832,
      "ational": 833,
      "Ġfind": 834,
      "ont": 835,
      "ved": 836,
      "Ġhigh": 837,
      "Ġset": 838,
      "olog": 839,
      "Ġloc": 840,
      "ble": 841,
      "velop": 842,
      "Ġfin": 843,
      "aw": 844,
      "oll": 845,
      "erm": 846,
      "Ġstart": 847,
      "ward": 848,
      "ath": 849,
      "Ġnow": 850,
      "Ġcar": 851,
      "Ġins": 852,
      "rit": 853,
      "Ġsuch": 854,
      "uring": 855,
      "Ġrel": 856,
      "Ġsec": 857,
      "ĠAn": 858,
      "ract": 859,
      "Ġdown": 860,
      "Ġrequ": 861,
      "Ġdesign": 862,
      "Ġright": 863,
      "Ġhome": 864,
      "ĠSe": 865,
      "air": 866,
      "ts": 867,
      "ĠUn": 868,
      "ics": 869,
      "ative": 870,
      "Ġbusiness": 871,
      "ĠAnd": 872,
      "Ġmuch": 873,
      "line": 874,
      "der": 875,
      "ĠCom": 876,
      "Ġday": 877,
      "hes": 878,
      "Ġgu": 879,
      "Ġplay": 880,
      "its": 881,
      "Ġdiffe": 882,
      "ty": 883,
      "Ġinte": 884,
      "Ġav": 885,
      "),": 886,
      "Ġsaid": 887,
      "Ġatt": 888,
      "oy": 889,
      "Ġdon": 890,
      "gan": 891,
      "Ġtake": 892,
      "ient": 893,
      "pect": 894,
      "Ġexp": 895,
      "ject": 896,
      "hip": 897,
      "arch": 898,
      "ĠPro": 899,
      "Ġlong": 900,
      "Ġread": 901,
      "Ġbl": 902,
      "Ġbecause": 903,
      "Ġinformation": 904,
      "ident": 905,
      "ener": 906,
      "Ġmin": 907,
      "Ġ6": 908,
      "Ġtoo": 909,
      "Ġche": 910,
      "com": 911,
      "ob": 912,
      "alth": 913,
      "Ġused": 914,
      "arket": 915,
      "und": 916,
      "ited": 917,
      "Ġperson": 918,
      "Ġsim": 919,
      "ĠDe": 920,
      "Ġdevelop": 921,
      "Ġsystem": 922,
      "up": 923,
      "Ġmon": 924,
      "Ġfam": 925,
      "Ġdisc": 926,
      "Ġbr": 927,
      "chn": 928,
      "Ġmade": 929,
      "Ġcre": 930,
      "Ġtrans": 931,
      "Ġhere": 932,
      "ustom": 933,
      "cy": 934,
      "Ġprovid": 935,
      "ove": 936,
      "ality": 937,
      "Ġvis": 938,
      "Ġ&": 939,
      "Ġprog": 940,
      "Ġpres": 941,
      "Ġsur": 942,
      "Ġass": 943,
      "io": 944,
      "other": 945,
      "ied": 946,
      "rib": 947,
      "ĠThere": 948,
      "chool": 949,
      "Ġbel": 950,
      "Ġdoes": 951,
      "ash": 952,
      "Ġbefore": 953,
      "Ġshow": 954,
      "Ġdid": 955,
      "ĠAl": 956,
      "Ġthose": 957,
      "Ġbeing": 958,
      "Ġend": 959,
      "Ġcall": 960,
      "ner": 961,
      "ix": 962,
      "ĠBe": 963,
      "Ġworld": 964,
      "ĠSo": 965,
      "Ġnum": 966,
      "Ġcomple": 967,
      "Ġdet": 968,
      "ually": 969,
      "Ġ$": 970,
      "rest": 971,
      "Ġwee": 972,
      "Ġeach": 973,
      "Ġeas": 974,
      "Ġhand": 975,
      "Ġlife": 976,
      "ake": 977,
      "ata": 978,
      "Ġform": 979,
      "ork": 980,
      "ric": 981,
      "Ġsub": 982,
      "Ġmed": 983,
      "Ġbo": 984,
      "Ġart": 985,
      "Ġmem": 986,
      "Ġlook": 987,
      "ues": 988,
      "de": 989,
      "Ġcur": 990,
      "ages": 991,
      "Ġsupport": 992,
      "Ġinter": 993,
      "Ġagain": 994,
      "ouse": 995,
      "way": 996,
      "Ġop": 997,
      "led": 998,
      "arn": 999,
      "ĠBut": 1000,
      "Ġdifferent": 1001,
      "arm": 1002,
      "az": 1003,
      "ĠHow": 1004,
      "ci": 1005,
      "Ġsk": 1006,
      "kes": 1007,
      "Ġ10": 1008,
      "ank": 1009,
      "ional": 1010,
      "Ġadv": 1011,
      "gg": 1012,
      "Ġ7": 1013,
      "ize": 1014,
      "Ġcustom": 1015,
      "ĠSh": 1016,
      "Ġprocess": 1017,
      "cept": 1018,
      "ros": 1019,
      "Ġwhile": 1020,
      "ines": 1021,
      "ple": 1022,
      "Ġ8": 1023,
      "Ġcle": 1024,
      "Ġaround": 1025,
      "ives": 1026,
      "Ġ200": 1027,
      "land": 1028,
      "Ġstr": 1029,
      "ince": 1030,
      "ell": 1031,
      "olut": 1032,
      "Ġpost": 1033,
      "ather": 1034,
      "ason": 1035,
      "Ġmarket": 1036,
      "ctions": 1037,
      "ave": 1038,
      "Ġcare": 1039,
      "ng": 1040,
      "ale": 1041,
      "Ġlove": 1042,
      "Ġprof": 1043,
      "Ġlead": 1044,
      "Ġreally": 1045,
      "Ġavail": 1046,
      "Ġaut": 1047,
      "self": 1048,
      "Ġlast": 1049,
      "ves": 1050,
      "Ġfree": 1051,
      "Ġcommun": 1052,
      "lease": 1053,
      "ene": 1054,
      "Ġloo": 1055,
      "Ġplace": 1056,
      "Ġret": 1057,
      "ollow": 1058,
      "Ġed": 1059,
      "atch": 1060,
      "Ġ.": 1061,
      "Ġgra": 1062,
      "Ġchild": 1063,
      "ĠOn": 1064,
      "ins": 1065,
      "Ġprogram": 1066,
      "ĠThey": 1067,
      "Ġtechn": 1068,
      "ways": 1069,
      "roup": 1070,
      "Ġteam": 1071,
      "Ġpur": 1072,
      "Ġser": 1073,
      "ween": 1074,
      "Ġsign": 1075,
      "Ġlist": 1076,
      "Ġfun": 1077,
      "Ġusing": 1078,
      "pr": 1079,
      "Ġpub": 1080,
      "read": 1081,
      "Ġimport": 1082,
      "irect": 1083,
      "Ġsom": 1084,
      "Ġcour": 1085,
      "Ġcount": 1086,
      "ĠNew": 1087,
      "Ġtop": 1088,
      "ness": 1089,
      "Ġhim": 1090,
      "imes": 1091,
      "Ġboth": 1092,
      "Ġsame": 1093,
      "ets": 1094,
      "Ġthink": 1095,
      "Ġext": 1096,
      "Ġlar": 1097,
      "Ġfull": 1098,
      "Ġfeel": 1099,
      "Ġfound": 1100,
      "oun": 1101,
      "riend": 1102,
      "Ġbetween": 1103,
      "Ġval": 1104,
      "ten": 1105,
      "ining": 1106,
      "Ġavailable": 1107,
      "Ġstill": 1108,
      "Ġvar": 1109,
      "Ġopt": 1110,
      "ized": 1111,
      "ature": 1112,
      "ĠCl": 1113,
      "view": 1114,
      "Ġservice": 1115,
      "Ġchar": 1116,
      "ĠAd": 1117,
      "Ġplan": 1118,
      "Ġpol": 1119,
      "ĠAr": 1120,
      "Ġlot": 1121,
      "ivers": 1122,
      "Ġthough": 1123,
      "Ġgoing": 1124,
      "Ġty": 1125,
      "Ġcompany": 1126,
      "ired": 1127,
      "iqu": 1128,
      "ffect": 1129,
      "Ġide": 1130,
      "Ġrun": 1131,
      "Ġfew": 1132,
      "Ġgener": 1133,
      "less": 1134,
      "ĠLe": 1135,
      "ittle": 1136,
      "ety": 1137,
      "Ġappro": 1138,
      "Ġfollow": 1139,
      "ars": 1140,
      "ĠWhat": 1141,
      "Ġcor": 1142,
      "ants": 1143,
      "Ġmain": 1144,
      "Ġpoint": 1145,
      "Ġexperience": 1146,
      "ever": 1147,
      "uc": 1148,
      "Ġkeep": 1149,
      "Ġsl": 1150,
      "Ġresult": 1151,
      "Ġdata": 1152,
      "ology": 1153,
      "Ġposs": 1154,
      "Ġsmall": 1155,
      "ĠTo": 1156,
      "Ġhealth": 1157,
      "iving": 1158,
      "Ġ9": 1159,
      "Ġbuild": 1160,
      "Ġwater": 1161,
      "Ġhapp": 1162,
      "Ġpat": 1163,
      "ĠWhen": 1164,
      "ering": 1165,
      "Ġallow": 1166,
      "Ġpartic": 1167,
      "Ġreal": 1168,
      "ov": 1169,
      "Ġob": 1170,
      "ĠAll": 1171,
      "Ġmonth": 1172,
      "Ġref": 1173,
      "Ġorgan": 1174,
      "ital": 1175,
      "ware": 1176,
      "Ġopen": 1177,
      "ross": 1178,
      "Ġalways": 1179,
      "Ġservices": 1180,
      "000": 1181,
      "ah": 1182,
      "20": 1183,
      "Ġcent": 1184,
      "ms": 1185,
      "plo": 1186,
      "Ġincluding": 1187,
      "Ġprovide": 1188,
      "Ġinterest": 1189,
      "Ġsure": 1190,
      "stand": 1191,
      "Ġthings": 1192,
      "Ġpri": 1193,
      "orth": 1194,
      "Ġdri": 1195,
      "Ġpay": 1196,
      "Ġnumber": 1197,
      "ĠPl": 1198,
      "be": 1199,
      "erg": 1200,
      "ural": 1201,
      "aut": 1202,
      "Ġduring": 1203,
      "Ġrest": 1204,
      "ined": 1205,
      "ically": 1206,
      "Ġcost": 1207,
      "bers": 1208,
      "Ġfamily": 1209,
      "ton": 1210,
      "co": 1211,
      "thing": 1212,
      "Ġlittle": 1213,
      "Ġthree": 1214,
      "Ġmust": 1215,
      "Ġfil": 1216,
      "Ġwithout": 1217,
      "Ġstand": 1218,
      "ug": 1219,
      "Ġiss": 1220,
      "ĠWith": 1221,
      "Ġint": 1222,
      "Ġschool": 1223,
      "Ġcome": 1224,
      "Ġresp": 1225,
      "Ġimportant": 1226,
      "ĠAt": 1227,
      "Ġbetter": 1228,
      "ĠEx": 1229,
      "Ġdef": 1230,
      "ody": 1231,
      "Ġrece": 1232,
      "Ġfact": 1233,
      "Ġperform": 1234,
      "arly": 1235,
      "ists": 1236,
      "ield": 1237,
      "Ġdist": 1238,
      "Ġspec": 1239,
      "ĠQ": 1240,
      "Ġonline": 1241,
      "ething": 1242,
      "alk": 1243,
      "ute": 1244,
      "Ġfriend": 1245,
      "con": 1246,
      "Ġclass": 1247,
      "Ġconf": 1248,
      "ĠTe": 1249,
      "Ġve": 1250,
      "Ġproper": 1251,
      "ĠOur": 1252,
      "ished": 1253,
      "Ġmod": 1254,
      "Ġsay": 1255,
      "Ġpass": 1256,
      "ery": 1257,
      "Ġquest": 1258,
      "Ġconc": 1259,
      "els": 1260,
      "Ġlevel": 1261,
      "Ġable": 1262,
      "Ġstate": 1263,
      "Ġcontin": 1264,
      "Ġtry": 1265,
      "man": 1266,
      "Ġbra": 1267,
      "Ġgroup": 1268,
      "Ġproble": 1269,
      "ling": 1270,
      "Ġarea": 1271,
      "ients": 1272,
      "ier": 1273,
      "reen": 1274,
      "orts": 1275,
      "Ġnext": 1276,
      "Ġwebs": 1277,
      "ploy": 1278,
      "Ġspecial": 1279,
      "Ġincre": 1280,
      "Ġput": 1281,
      "ention": 1282,
      "ared": 1283,
      "oney": 1284,
      "Ġlight": 1285,
      "Ġi": 1286,
      "Ġgive": 1287,
      "Ġsomething": 1288,
      "ock": 1289,
      "Ġaccess": 1290,
      "au": 1291,
      "Ġopp": 1292,
      "ately": 1293,
      "ertain": 1294,
      "ĠIs": 1295,
      "Ġtri": 1296,
      "meric": 1297,
      "Ġwithin": 1298,
      "ĠShe": 1299,
      "ien": 1300,
      "uss": 1301,
      "ĠInd": 1302,
      "att": 1303,
      "Ġmight": 1304,
      "me": 1305,
      "ccess": 1306,
      "Ġanother": 1307,
      "dition": 1308,
      "ral": 1309,
      "Ġblo": 1310,
      "Ġbig": 1311,
      "Ġhard": 1312,
      "ames": 1313,
      "Ġinf": 1314,
      "Ġquality": 1315,
      "Ġorder": 1316,
      "Ġmus": 1317,
      "Ġwr": 1318,
      "vern": 1319,
      "Ġlet": 1320,
      "ential": 1321,
      "Ġcurrent": 1322,
      "Ġeng": 1323,
      "Ġsecond": 1324,
      "ps": 1325,
      "Ġgrow": 1326,
      "Ġsince": 1327,
      "Ġdirect": 1328,
      "Ġbook": 1329,
      "ortun": 1330,
      "Ġpower": 1331,
      "Ġroom": 1332,
      "ruct": 1333,
      "Ġinvest": 1334,
      "oot": 1335,
      "ffic": 1336,
      "Ġoper": 1337,
      "ior": 1338,
      "pend": 1339,
      "load": 1340,
      "Ġrese": 1341,
      "ĠSp": 1342,
      "rol": 1343,
      "Ġhead": 1344,
      "Ġphot": 1345,
      "Ġcr": 1346,
      "Ġdi": 1347,
      "Ġest": 1348,
      "Ġprofess": 1349,
      "Ġaddition": 1350,
      "rence": 1351,
      "Ġless": 1352,
      "ĠAmeric": 1353,
      "here": 1354,
      "Ġvisit": 1355,
      "eng": 1356,
      "ards": 1357,
      "joy": 1358,
      "Ġold": 1359,
      "ours": 1360,
      "Ġweek": 1361,
      "Ġequ": 1362,
      "Ġgl": 1363,
      "Ġtest": 1364,
      "Ġoffer": 1365,
      "Ġsite": 1366,
      "rist": 1367,
      "ration": 1368,
      "Ġdays": 1369,
      "ivid": 1370,
      "ĠSc": 1371,
      "Ġjo": 1372,
      "ision": 1373,
      "Ġworking": 1374,
      "orn": 1375,
      "Ġsit": 1376,
      "ĠThat": 1377,
      "Ġview": 1378,
      "Ġnever": 1379,
      "Ġapplic": 1380,
      "Ġ'": 1381,
      "Ġbro": 1382,
      "ateg": 1383,
      "ĠâĢĺ": 1384,
      "ted": 1385,
      "ĠCon": 1386,
      "Ġtoday": 1387,
      "Ġmeet": 1388,
      "ense": 1389,
      "oss": 1390,
      "Ġproducts": 1391,
      "ium": 1392,
      "Ġgame": 1393,
      "ote": 1394,
      "Ġfood": 1395,
      "Ġgot": 1396,
      "work": 1397,
      "iversity": 1398,
      "Ġbre": 1399,
      "Ġlooking": 1400,
      "Ġpract": 1401,
      "Ġpresent": 1402,
      "gin": 1403,
      "ases": 1404,
      "Ġintern": 1405,
      "ĠZ": 1406,
      "iron": 1407,
      "Ġfac": 1408,
      "Ġel": 1409,
      "Ġgr": 1410,
      "Ġpublic": 1411,
      "Ġlocal": 1412,
      "Ġstudents": 1413,
      "room": 1414,
      "ems": 1415,
      "ains": 1416,
      "Ġmaking": 1417,
      "Ġprote": 1418,
      "ified": 1419,
      "ĠPh": 1420,
      "ĠMy": 1421,
      "Ġlarge": 1422,
      "omm": 1423,
      "Ġprom": 1424,
      "!!": 1425,
      "agement": 1426,
      ".\"": 1427,
      "Ġneeds": 1428,
      "Ġprev": 1429,
      "Ġunderstand": 1430,
      "ator": 1431,
      "Ġpop": 1432,
      "Ġwebsite": 1433,
      "ently": 1434,
      "Ġindust": 1435,
      "ĠJo": 1436,
      "Ġmet": 1437,
      "Ġsal": 1438,
      "ĠCan": 1439,
      "Ġbuy": 1440,
      "ump": 1441,
      "pping": 1442,
      "ĠThese": 1443,
      "ability": 1444,
      "cing": 1445,
      "Ġeffect": 1446,
      "Ġcheck": 1447,
      "ird": 1448,
      "ieve": 1449,
      "por": 1450,
      "Ġimpro": 1451,
      "Ġproject": 1452,
      "Ġca": 1453,
      "ised": 1454,
      "Ġcap": 1455,
      "Ġcomplete": 1456,
      "Ġ12": 1457,
      "lection": 1458,
      "pos": 1459,
      "Ġfr": 1460,
      "Ġchildren": 1461,
      "Ġproduct": 1462,
      "ĠFr": 1463,
      "ER": 1464,
      "Ġwin": 1465,
      "inal": 1466,
      "Ġair": 1467,
      "cl": 1468,
      "Ġchange": 1469,
      "Ġconst": 1470,
      "orm": 1471,
      "ism": 1472,
      "ax": 1473,
      "Ġmoney": 1474,
      "Ġunt": 1475,
      "ĠCol": 1476,
      "Ġevent": 1477,
      "Ġchang": 1478,
      "ats": 1479,
      "aterial": 1480,
      "ron": 1481,
      "Ġactiv": 1482,
      "ĠDo": 1483,
      "Ġ18": 1484,
      "Ġeasy": 1485,
      "illion": 1486,
      "10": 1487,
      "ider": 1488,
      "atter": 1489,
      "ify": 1490,
      "ĠRes": 1491,
      "Ġ0": 1492,
      "ission": 1493,
      "Ġenjoy": 1494,
      "outh": 1495,
      "ĠOr": 1496,
      "Ġtru": 1497,
      "Ġsuccess": 1498,
      "Ġcreat": 1499,
      "Ġlearn": 1500,
      "ĠMan": 1501,
      "port": 1502,
      "Ġcourse": 1503,
      "Ġbas": 1504,
      "ample": 1505,
      "Ġcase": 1506,
      "Ġconne": 1507,
      "ills": 1508,
      "ĠBl": 1509,
      "Ġdev": 1510,
      "ique": 1511,
      "Ġann": 1512,
      "ĠUS": 1513,
      "ode": 1514,
      "tend": 1515,
      "Ġlaw": 1516,
      "ope": 1517,
      "ably": 1518,
      "ization": 1519,
      "50": 1520,
      "Ġreport": 1521,
      "Ġhouse": 1522,
      "Ġterm": 1523,
      ".,": 1524,
      "Ġturn": 1525,
      "ĠNo": 1526,
      "ocus": 1527,
      "itions": 1528,
      "bo": 1529,
      "Ġemploy": 1530,
      "ott": 1531,
      "Ġpar": 1532,
      "Ġalong": 1533,
      "Ġaway": 1534,
      "tain": 1535,
      "Ġdem": 1536,
      "ids": 1537,
      "ush": 1538,
      "gether": 1539,
      "Ġtogether": 1540,
      "ret": 1541,
      "Ġbene": 1542,
      "Ġoften": 1543,
      "Ġpossible": 1544,
      "Ġpa": 1545,
      "ered": 1546,
      "ury": 1547,
      "aster": 1548,
      "Ġdetail": 1549,
      "Ġpain": 1550,
      "Ġtreat": 1551,
      "Ġbeaut": 1552,
      "med": 1553,
      "Ġleg": 1554,
      "cent": 1555,
      "of": 1556,
      "Ġname": 1557,
      "Ġsing": 1558,
      "Ġuntil": 1559,
      "aring": 1560,
      "utes": 1561,
      "pped": 1562,
      "let": 1563,
      "icle": 1564,
      "ember": 1565,
      "ows": 1566,
      "lish": 1567,
      "ĠOne": 1568,
      "Ġaccount": 1569,
      "ries": 1570,
      "Ġbased": 1571,
      "Ġcreate": 1572,
      "ern": 1573,
      "ina": 1574,
      "Ġindivid": 1575,
      "Ġhum": 1576,
      "Ġhist": 1577,
      "ĠChrist": 1578,
      "ream": 1579,
      "ogra": 1580,
      "Ġmaterial": 1581,
      "Ġcontact": 1582,
      "Ġbeh": 1583,
      "ories": 1584,
      "Ġwhy": 1585,
      "ising": 1586,
      "Ġpersonal": 1587,
      "Ġdra": 1588,
      "part": 1589,
      "iven": 1590,
      "Ġtimes": 1591,
      "Ġvide": 1592,
      "itive": 1593,
      "Ġcommunity": 1594,
      "min": 1595,
      "Ġpot": 1596,
      "Ġresearch": 1597,
      "Ġhaving": 1598,
      "ĠComm": 1599,
      "olution": 1600,
      "Ġbenef": 1601,
      "ann": 1602,
      "Ġinclude": 1603,
      "Ġperfect": 1604,
      "Ġla": 1605,
      "fer": 1606,
      "the": 1607,
      "soci": 1608,
      "Ġpast": 1609,
      "ĠCent": 1610,
      "viron": 1611,
      "veral": 1612,
      "Ġagainst": 1613,
      "Ġkind": 1614,
      "Ġfour": 1615,
      "Ġworks": 1616,
      "ex": 1617,
      "Ġmar": 1618,
      "Ġwrit": 1619,
      "Ġside": 1620,
      "Ġask": 1621,
      "ken": 1622,
      "yle": 1623,
      "Ġpage": 1624,
      "Ġelect": 1625,
      "side": 1626,
      "Ġsoft": 1627,
      "atures": 1628,
      ",âĢĿ": 1629,
      "lement": 1630,
      "Ġfocus": 1631,
      "ffe": 1632,
      "Ġexpect": 1633,
      "ĠTr": 1634,
      "Ġindividual": 1635,
      "ived": 1636,
      "arent": 1637,
      "ger": 1638,
      "Ġrecord": 1639,
      "Ġcontrol": 1640,
      "ination": 1641,
      "pecial": 1642,
      "lling": 1643,
      "ding": 1644,
      "Ġrequire": 1645,
      "Ġbecome": 1646,
      "cu": 1647,
      "Ġmeans": 1648,
      "hor": 1649,
      "Ġthing": 1650,
      "ĠGod": 1651,
      "...": 1652,
      "Ġopportun": 1653,
      "ley": 1654,
      "Ġline": 1655,
      "Ġmove": 1656,
      "ured": 1657,
      "Ġmakes": 1658,
      "Ġgovern": 1659,
      "Ġsw": 1660,
      "ĠCo": 1661,
      "aking": 1662,
      "Ġtem": 1663,
      "Ġmult": 1664,
      "ency": 1665,
      "Ġspecific": 1666,
      "Ġdone": 1667,
      "âĢ¦": 1668,
      "Ġwom": 1669,
      "br": 1670,
      "ĠAfter": 1671,
      "jor": 1672,
      "Ġprice": 1673,
      "ĠHowever": 1674,
      "Ġdevelopment": 1675,
      "ney": 1676,
      "Ġclo": 1677,
      "Ġnight": 1678,
      "Ġes": 1679,
      "Ġmembers": 1680,
      "Ġtre": 1681,
      "ik": 1682,
      "Ġlim": 1683,
      "uck": 1684,
      "ready": 1685,
      "uro": 1686,
      "Ġword": 1687,
      "oice": 1688,
      "Ġ15": 1689,
      "Ġens": 1690,
      "Ġcou": 1691,
      "Ġreview": 1692,
      "Ġshort": 1693,
      "ands": 1694,
      "ane": 1695,
      "Ġnet": 1696,
      "Ġcertain": 1697,
      "Ġocc": 1698,
      "Ġcomes": 1699,
      "iting": 1700,
      "Ġnon": 1701,
      "Ġlow": 1702,
      "ĠAm": 1703,
      "Ġquick": 1704,
      "ĠâĢĶ": 1705,
      "ĠMar": 1706,
      "Ġsocial": 1707,
      "Ġ30": 1708,
      "Ġclean": 1709,
      "conom": 1710,
      "Ġbody": 1711,
      "Ġeduc": 1712,
      "Ġlive": 1713,
      "Ġenough": 1714,
      "Ġseveral": 1715,
      "uture": 1716,
      "Ġothers": 1717,
      "Ġhot": 1718,
      "ĠEng": 1719,
      "Ġvari": 1720,
      "Ġsol": 1721,
      "Ġste": 1722,
      "'re": 1723,
      "Ġjob": 1724,
      "Ġet": 1725,
      "ĠSu": 1726,
      "oint": 1727,
      "Ġce": 1728,
      "anies": 1729,
      "oring": 1730,
      "Ġfund": 1731,
      "ĠUniversity": 1732,
      "Ġalready": 1733,
      "Ġacross": 1734,
      "ript": 1735,
      "Ġfav": 1736,
      "aff": 1737,
      "vironment": 1738,
      "Ġtyp": 1739,
      "Ġtool": 1740,
      "Ġleft": 1741,
      "Ġspace": 1742,
      "ĠApp": 1743,
      "IN": 1744,
      "Ġkey": 1745,
      "Ġpurch": 1746,
      "Ġever": 1747,
      "Ġmusic": 1748,
      "ots": 1749,
      "itc": 1750,
      "Ġvers": 1751,
      "Ġgetting": 1752,
      "aim": 1753,
      "Ġredu": 1754,
      "ĠÂ": 1755,
      "Ġhig": 1756,
      "Ġbit": 1757,
      "Ġcountry": 1758,
      "by": 1759,
      "Ġmind": 1760,
      "urs": 1761,
      "Ġpack": 1762,
      "rop": 1763,
      "wards": 1764,
      "Ġbelow": 1765,
      "Ġanal": 1766,
      "Ġinstall": 1767,
      "Ġhold": 1768,
      "anks": 1769,
      "ances": 1770,
      "ither": 1771,
      "Ġcover": 1772,
      "Ġmajor": 1773,
      "Ġdeal": 1774,
      "Ġ11": 1775,
      "urity": 1776,
      "Ġshare": 1777,
      "urther": 1778,
      "ides": 1779,
      "Ġrange": 1780,
      "inc": 1781,
      "ethod": 1782,
      "Ġfore": 1783,
      "Ġparticular": 1784,
      "ĠCar": 1785,
      "âĢĶ": 1786,
      "Ġexample": 1787,
      "30": 1788,
      "ged": 1789,
      "alf": 1790,
      "ĠTra": 1791,
      "ĠEn": 1792,
      "Ġfar": 1793,
      "Ġoffers": 1794,
      "ording": 1795,
      "Ġindustry": 1796,
      "jects": 1797,
      "The": 1798,
      "Ġorig": 1799,
      "ĠComp": 1800,
      "ĠMay": 1801,
      "ĠYour": 1802,
      "Ġfuture": 1803,
      "Ġmean": 1804,
      "Ġexpl": 1805,
      "Ġcompet": 1806,
      "Ġdoing": 1807,
      "ully": 1808,
      "ift": 1809,
      "oose": 1810,
      "Ġcity": 1811,
      "iful": 1812,
      "Ġboo": 1813,
      "Ġcomb": 1814,
      "Ġstep": 1815,
      "ribut": 1816,
      "Ġwind": 1817,
      "Ġdeli": 1818,
      "Ġbring": 1819,
      "Ġinvol": 1820,
      "Ġcamp": 1821,
      "Ġcompanies": 1822,
      "ograph": 1823,
      "lf": 1824,
      "Ġseason": 1825,
      "ee": 1826,
      "Ġvalue": 1827,
      "Ġleast": 1828,
      "Ġhours": 1829,
      "Ġpriv": 1830,
      "ĠDes": 1831,
      "Ġident": 1832,
      "atic": 1833,
      "Ġstudy": 1834,
      "ilities": 1835,
      "ilt": 1836,
      "Ġreturn": 1837,
      "Ġonce": 1838,
      "Ġactually": 1839,
      "Ġcalled": 1840,
      "ĠPr": 1841,
      "Ġstory": 1842,
      "ĠRo": 1843,
      "Ġrecomm": 1844,
      "19": 1845,
      "err": 1846,
      "ctor": 1847,
      "Ġ2018": 1848,
      "Ġproblem": 1849,
      "Ġbed": 1850,
      "ai": 1851,
      "Ġrecommend": 1852,
      "ĠFl": 1853,
      "ON": 1854,
      "ĠCont": 1855,
      "ec": 1856,
      "most": 1857,
      "Ġstarted": 1858,
      "aces": 1859,
      "ĠInst": 1860,
      "Ġcustomers": 1861,
      "urance": 1862,
      "'m": 1863,
      "Ġprep": 1864,
      "osed": 1865,
      "ES": 1866,
      "ners": 1867,
      "Ġreason": 1868,
      "Ġaddress": 1869,
      "ĠWor": 1870,
      "ĠIntern": 1871,
      "Ġamount": 1872,
      "Ġpict": 1873,
      "Ġess": 1874,
      "Ġfeatures": 1875,
      "Ġmil": 1876,
      "cle": 1877,
      "Ġbrand": 1878,
      "cell": 1879,
      "Ġemail": 1880,
      "ster": 1881,
      "ĠChe": 1882,
      "ape": 1883,
      "ones": 1884,
      "Ġcut": 1885,
      "Ġpie": 1886,
      "Ġris": 1887,
      "Ġfriends": 1888,
      "'ve": 1889,
      "Ġresults": 1890,
      "Ġsum": 1891,
      "iod": 1892,
      "Ġport": 1893,
      "AT": 1894,
      "bal": 1895,
      "ĠSte": 1896,
      "ĠX": 1897,
      "ĠServ": 1898,
      "Ġminutes": 1899,
      "ĠSy": 1900,
      "enn": 1901,
      "Ġfield": 1902,
      "fort": 1903,
      "Ġabove": 1904,
      "Ġstrong": 1905,
      "ford": 1906,
      "Ġchall": 1907,
      "ference": 1908,
      "Ġtechnology": 1909,
      "ino": 1910,
      "Ġrespons": 1911,
      "Ġvol": 1912,
      "Ġdidn": 1913,
      "ource": 1914,
      "Ġsuper": 1915,
      "resent": 1916,
      "Ġmethod": 1917,
      "ancial": 1918,
      "go": 1919,
      "Ġdiscuss": 1920,
      "Ġcontent": 1921,
      "Ġexc": 1922,
      "Ġoffic": 1923,
      "Ġdr": 1924,
      "Ġplease": 1925,
      "Ġenvironment": 1926,
      "Ġbegin": 1927,
      "Ġclose": 1928,
      "Ġprofessional": 1929,
      "rodu": 1930,
      "ply": 1931,
      "atural": 1932,
      "Ġcharact": 1933,
      "Ġwa": 1934,
      "Ġbuilding": 1935,
      "ources": 1936,
      "Ġvideo": 1937,
      "'ll": 1938,
      "Ġz": 1939,
      "Ġdoesn": 1940,
      "ledge": 1941,
      "Ġprovides": 1942,
      "not": 1943,
      "Ġsearch": 1944,
      "arning": 1945,
      "uf": 1946,
      "ulation": 1947,
      "Ġeverything": 1948,
      "ĠFe": 1949,
      "ĠMe": 1950,
      "Ġtype": 1951,
      "Ġmonths": 1952,
      "ĠGu": 1953,
      "ĠMed": 1954,
      "hn": 1955,
      "lished": 1956,
      "ister": 1957,
      "app": 1958,
      "Ġheart": 1959,
      "sh": 1960,
      "Ġenc": 1961,
      "Ġstay": 1962,
      "Ġquestions": 1963,
      "Ġflo": 1964,
      "osp": 1965,
      "Ġtot": 1966,
      "Ġmom": 1967,
      "Ġknown": 1968,
      "Ġtax": 1969,
      "Ġweb": 1970,
      "Ġrele": 1971,
      "Ġgiven": 1972,
      "Ġmen": 1973,
      "light": 1974,
      "Ġcra": 1975,
      "idd": 1976,
      "Ġwon": 1977,
      "icy": 1978,
      "Ġ199": 1979,
      "sw": 1980,
      "AN": 1981,
      "ergy": 1982,
      "Ġsound": 1983,
      "Ġproperty": 1984,
      "Ġyoung": 1985,
      "Ġearly": 1986,
      "ips": 1987,
      "Ġdownload": 1988,
      "AR": 1989,
      "Ġwond": 1990,
      "Ġyet": 1991,
      "Ġmot": 1992,
      "Ġsimple": 1993,
      "Ġ100": 1994,
      "ians": 1995,
      "crib": 1996,
      "unch": 1997,
      "Ġmillion": 1998,
      "Ġcred": 1999,
      "Ġmanagement": 2000,
      "Ġthought": 2001,
      "cted": 2002,
      "Ġtraining": 2003,
      "Ġgovernment": 2004,
      "ental": 2005,
      "cks": 2006,
      "Ġcame": 2007,
      "Ġtravel": 2008,
      "une": 2009,
      "over": 2010,
      "Ġimprove": 2011,
      "pecially": 2012,
      "ches": 2013,
      "Ġey": 2014,
      "Ġsingle": 2015,
      "hers": 2016,
      "Ġissues": 2017,
      "Ġcal": 2018,
      "Ġeconom": 2019,
      "ges": 2020,
      "Ġcard": 2021,
      "Ġvarious": 2022,
      "Ġareas": 2023,
      "resh": 2024,
      ",\"": 2025,
      "ibility": 2026,
      "Ġant": 2027,
      "Ġpress": 2028,
      "Ġappear": 2029,
      "Ġbar": 2030,
      "Ġbeautiful": 2031,
      "Ġdue": 2032,
      "mber": 2033,
      "Ġconsider": 2034,
      "Ġrepl": 2035,
      "Ġhope": 2036,
      "uff": 2037,
      "ring": 2038,
      "ĠEuro": 2039,
      "Ġfollowing": 2040,
      "ĠNot": 2041,
      "Ġrequired": 2042,
      "Ġtook": 2043,
      "irm": 2044,
      "ead": 2045,
      "illed": 2046,
      "Ġnews": 2047,
      "Ġupd": 2048,
      "Ġperiod": 2049,
      "Ġcult": 2050,
      "ensive": 2051,
      "ww": 2052,
      "Ġcomput": 2053,
      "Ġhappen": 2054,
      "Ġ16": 2055,
      "ĠNow": 2056,
      "Ġwhether": 2057,
      "Ġ,": 2058,
      "ĠAmerican": 2059,
      "Ġsize": 2060,
      "Ġsays": 2061,
      "Ġwhole": 2062,
      "asing": 2063,
      "fully": 2064,
      "eral": 2065,
      "ĠRep": 2066,
      "Ġunique": 2067,
      "ĠWhile": 2068,
      "ored": 2069,
      "Ġexperien": 2070,
      "ĠPlease": 2071,
      "Ġdiff": 2072,
      "iday": 2073,
      "rap": 2074,
      "Ġlater": 2075,
      "Ġenergy": 2076,
      "Ġcommon": 2077,
      "Ġele": 2078,
      "book": 2079,
      "Ġmess": 2080,
      "omes": 2081,
      "Ġtell": 2082,
      "ogn": 2083,
      "Ġstrateg": 2084,
      "Ġmanag": 2085,
      "12": 2086,
      "Ġliving": 2087,
      "acy": 2088,
      "abor": 2089,
      "augh": 2090,
      "Ġ14": 2091,
      "idence": 2092,
      "Ġperformance": 2093,
      "Ġexam": 2094,
      "ony": 2095,
      "aps": 2096,
      "ĠSome": 2097,
      "Ġtable": 2098,
      "ufact": 2099,
      "Ġidea": 2100,
      "Ġtaking": 2101,
      "Ġfurther": 2102,
      "ume": 2103,
      "ung": 2104,
      "vert": 2105,
      "Ġsomeone": 2106,
      "ĠBo": 2107,
      "Ġaud": 2108,
      "ruction": 2109,
      "Ġparticip": 2110,
      "Ġtas": 2111,
      "cript": 2112,
      "ler": 2113,
      "Ġprob": 2114,
      "Ġdig": 2115,
      "Ġstaff": 2116,
      "Ġmedia": 2117,
      "Ġselect": 2118,
      "Ġmeas": 2119,
      "play": 2120,
      "ests": 2121,
      "Ġamong": 2122,
      "Ġtal": 2123,
      "Ġfront": 2124,
      "Ġassist": 2125,
      "Ġphys": 2126,
      "though": 2127,
      "cer": 2128,
      "ĠIm": 2129,
      "Ġrelations": 2130,
      "Ġpercent": 2131,
      "urch": 2132,
      "Ġauthor": 2133,
      "astic": 2134,
      "OR": 2135,
      "Ġfre": 2136,
      "tt": 2137,
      "Ġhuman": 2138,
      "Ġnear": 2139,
      "xim": 2140,
      "Ġprint": 2141,
      "Ġeffective": 2142,
      "gr": 2143,
      "Ġdesigned": 2144,
      "Ġseen": 2145,
      "Ġwall": 2146,
      "Ġeither": 2147,
      "Ġsn": 2148,
      "Ġchoose": 2149,
      "Ġensure": 2150,
      "wh": 2151,
      "reet": 2152,
      "ites": 2153,
      "Ġage": 2154,
      "ched": 2155,
      "Ġoffice": 2156,
      "icult": 2157,
      "lex": 2158,
      "Ġclaim": 2159,
      "come": 2160,
      "Ġwent": 2161,
      "Ġpotential": 2162,
      "Ġnecess": 2163,
      "rict": 2164,
      "Ġ[": 2165,
      "lege": 2166,
      "mb": 2167,
      "aur": 2168,
      "Ġcustomer": 2169,
      "ĠJohn": 2170,
      "Ġprovided": 2171,
      "ided": 2172,
      "Ġeff": 2173,
      "Ġwomen": 2174,
      "Ġdocu": 2175,
      "Ġentire": 2176,
      "Ġdam": 2177,
      "ĠBy": 2178,
      "Ġneeded": 2179,
      "Ġfive": 2180,
      "nam": 2181,
      "Ġextra": 2182,
      "Ġbelieve": 2183,
      "Ġach": 2184,
      "irt": 2185,
      "Ġcond": 2186,
      "son": 2187,
      "Ġquite": 2188,
      "Ġtext": 2189,
      "ĠUnited": 2190,
      "Ġhistory": 2191,
      "selves": 2192,
      "hing": 2193,
      "Ġ24": 2194,
      "Ġsugg": 2195,
      "Ġhost": 2196,
      "ication": 2197,
      "ĠJust": 2198,
      "Ġincludes": 2199,
      "itted": 2200,
      "che": 2201,
      "Ġsignific": 2202,
      "Ġwide": 2203,
      "Ġoptions": 2204,
      "Ġsimply": 2205,
      "Ġengine": 2206,
      "af": 2207,
      "Ġoil": 2208,
      "Ġespecially": 2209,
      "Ġmag": 2210,
      "rew": 2211,
      "Ġfunction": 2212,
      "iously": 2213,
      "Ġfinancial": 2214,
      "ĠEurope": 2215,
      "ilar": 2216,
      "Ġtour": 2217,
      "Ġbreak": 2218,
      "Ġmach": 2219,
      "ables": 2220,
      "Ġquestion": 2221,
      "Ġ/": 2222,
      "Ġsoftware": 2223,
      "ĠCity": 2224,
      "ification": 2225,
      "Ġcomfort": 2226,
      "Ġseries": 2227,
      "imate": 2228,
      "gle": 2229,
      "Ġglo": 2230,
      "par": 2231,
      "Ġland": 2232,
      "ĠCal": 2233,
      "Ġyourself": 2234,
      "nov": 2235,
      "Ġcell": 2236,
      "inking": 2237,
      "Ġblog": 2238,
      "ators": 2239,
      "Ġsystems": 2240,
      "Ġspend": 2241,
      "ued": 2242,
      "ained": 2243,
      "Ġfavor": 2244,
      "yl": 2245,
      "ĠSchool": 2246,
      "ĠGo": 2247,
      "Ġeveryone": 2248,
      "ĠCount": 2249,
      "Ġ13": 2250,
      "aching": 2251,
      "arr": 2252,
      "Ġface": 2253,
      "Ġ2017": 2254,
      "Ġexist": 2255,
      "ĠMin": 2256,
      "Ġknowledge": 2257,
      "Ġnatural": 2258,
      "Ġwriting": 2259,
      "ires": 2260,
      "pro": 2261,
      "Ġinit": 2262,
      "Ġsitu": 2263,
      "gest": 2264,
      "Ġclear": 2265,
      "ĠDr": 2266,
      "Ġ50": 2267,
      "ili": 2268,
      "Ġetc": 2269,
      "Ġfall": 2270,
      "Ġapplication": 2271,
      "Ġ17": 2272,
      "Ġdifficult": 2273,
      "Ġevents": 2274,
      "Ġmoder": 2275,
      "Ġmiss": 2276,
      "Ġparent": 2277,
      "Ġproblems": 2278,
      "azing": 2279,
      "ises": 2280,
      "ĠSouth": 2281,
      "Ġways": 2282,
      "Ġanything": 2283,
      "Ġself": 2284,
      "ops": 2285,
      "ĠAust": 2286,
      "roll": 2287,
      "Ġcir": 2288,
      "Ġideas": 2289,
      "Ġgames": 2290,
      "ze": 2291,
      "ls": 2292,
      "Ġpopular": 2293,
      "ĠHere": 2294,
      "Ġ25": 2295,
      "Ġrepresent": 2296,
      "Ġstyle": 2297,
      "Ġwhite": 2298,
      "ED": 2299,
      "Ġcolor": 2300,
      "Ġclients": 2301,
      "ille": 2302,
      "Ġhalf": 2303,
      "Ġdeterm": 2304,
      "ĠGra": 2305,
      "ĠQu": 2306,
      "itchen": 2307,
      "11": 2308,
      "Ġalmost": 2309,
      "ief": 2310,
      "Ġphone": 2311,
      "Ġmodel": 2312,
      "Ġadded": 2313,
      "Ġblack": 2314,
      "Ġhy": 2315,
      "AS": 2316,
      "ĠBr": 2317,
      "Ġlikely": 2318,
      "iver": 2319,
      "gra": 2320,
      "Ġansw": 2321,
      "back": 2322,
      "Ġsoon": 2323,
      "ĠPe": 2324,
      "Ġveh": 2325,
      "Ġdou": 2326,
      "Ġhowever": 2327,
      "ĠDis": 2328,
      "Ġpaper": 2329,
      "ĠPre": 2330,
      "Ġmor": 2331,
      "Ġcreated": 2332,
      "Ġpan": 2333,
      "ĠPer": 2334,
      "ball": 2335,
      "Ġposition": 2336,
      "face": 2337,
      "Ġthird": 2338,
      "Ġregard": 2339,
      "ĠKe": 2340,
      "angu": 2341,
      "Ġabs": 2342,
      "Ġdetails": 2343,
      "Ġwatch": 2344,
      "Ġautom": 2345,
      "ibr": 2346,
      "Ġdeb": 2347,
      "Ġimpact": 2348,
      "ĠNorth": 2349,
      "ĠState": 2350,
      "Ġseem": 2351,
      "Ġcrit": 2352,
      "Ġtaken": 2353,
      "Ġreceive": 2354,
      "Ġmanufact": 2355,
      "Ġsecurity": 2356,
      "ux": 2357,
      "Ġred": 2358,
      "ĠSec": 2359,
      "olutions": 2360,
      "itch": 2361,
      "Ġsignificant": 2362,
      "pper": 2363,
      "ĠPart": 2364,
      "EN": 2365,
      "anced": 2366,
      "Ġsend": 2367,
      "Ġpick": 2368,
      "Ġfoot": 2369,
      "umb": 2370,
      "Ġthroughout": 2371,
      "vent": 2372,
      "15": 2373,
      "Ġroad": 2374,
      "Ġsho": 2375,
      "Ġchanges": 2376,
      "Ġfail": 2377,
      "Ġforward": 2378,
      "Ġbox": 2379,
      ".âĢĿ": 2380,
      "ĠNational": 2381,
      "Ġaccept": 2382,
      "Ġagree": 2383,
      "Ġinsurance": 2384,
      "Ġissue": 2385,
      "Ġconsum": 2386,
      "atur": 2387,
      "oid": 2388,
      "Ġrelationship": 2389,
      "ĠAg": 2390,
      "Ġlearning": 2391,
      "Ġincrease": 2392,
      "Ġopportunity": 2393,
      "IS": 2394,
      "ĠHis": 2395,
      "do": 2396,
      "ĠDon": 2397,
      "ipment": 2398,
      "Ġready": 2399,
      "Ġfeature": 2400,
      "Ġcoll": 2401,
      "Ġlink": 2402,
      "Ġassoci": 2403,
      "ĠTw": 2404,
      "Ġsafe": 2405,
      "new": 2406,
      "Ġago": 2407,
      "verage": 2408,
      "Ġfit": 2409,
      "Ġwonder": 2410,
      "ees": 2411,
      "Ġstruct": 2412,
      "18": 2413,
      "ĠFrom": 2414,
      "ĠAb": 2415,
      "ights": 2416,
      "ĠInc": 2417,
      "Ã©": 2418,
      "Ġrisk": 2419,
      "ĠSm": 2420,
      "Ġdepend": 2421,
      "Ġtreatment": 2422,
      "elt": 2423,
      "IT": 2424,
      "Ġestab": 2425,
      "rown": 2426,
      "Ġfast": 2427,
      "Ġdefin": 2428,
      "uge": 2429,
      "Ġtrack": 2430,
      "Ġlay": 2431,
      "time": 2432,
      "Ġlocated": 2433,
      "iple": 2434,
      "etimes": 2435,
      "Ġ2019": 2436,
      "Ġstra": 2437,
      "ok": 2438,
      "Ġbad": 2439,
      "val": 2440,
      "ison": 2441,
      "Ġusers": 2442,
      "Ġrather": 2443,
      "ĠStud": 2444,
      "Ġparty": 2445,
      "Ġlat": 2446,
      "Ġtradition": 2447,
      "Ġuser": 2448,
      "Ġtakes": 2449,
      "Ġdel": 2450,
      "icro": 2451,
      "Ġtou": 2452,
      "Ġmob": 2453,
      "ried": 2454,
      "Ġut": 2455,
      "opy": 2456,
      "Ġsales": 2457,
      "Ġtalk": 2458,
      "reme": 2459,
      "Ġusually": 2460,
      "Ġ2016": 2461,
      "Ġmatter": 2462,
      "Ġskills": 2463,
      "Ġpret": 2464,
      "Ġrate": 2465,
      "Ġeducation": 2466,
      "Ġwood": 2467,
      "where": 2468,
      "Ġwalk": 2469,
      "Ġcoming": 2470,
      "Ġregular": 2471,
      "Ġprobably": 2472,
      "Ġcontinue": 2473,
      "Ġhigher": 2474,
      "Ġcurrently": 2475,
      "Ġsent": 2476,
      "ĠBu": 2477,
      "Ġfire": 2478,
      "Ġtrying": 2479,
      "Ġdate": 2480,
      "Ġinsp": 2481,
      "Ġstore": 2482,
      "eter": 2483,
      "Ġelse": 2484,
      "arget": 2485,
      "Ġactivities": 2486,
      "Ġskin": 2487,
      "Ġda": 2488,
      "Ġadditional": 2489,
      "ival": 2490,
      "Ġjour": 2491,
      "Ġinfl": 2492,
      "gs": 2493,
      "oon": 2494,
      "Ġoutside": 2495,
      "Ġhappy": 2496,
      "??": 2497,
      "ĠTH": 2498,
      "AL": 2499,
      "ĠReg": 2500,
      "medi": 2501,
      "Ġnice": 2502,
      "Ġfilm": 2503,
      "apt": 2504,
      "Ġpolit": 2505,
      "ĠUs": 2506,
      "Ġimage": 2507,
      "istic": 2508,
      "ules": 2509,
      "Ġpoints": 2510,
      "ĠJan": 2511,
      "Ġsimilar": 2512,
      "Ġrecogn": 2513,
      "Ġfile": 2514,
      "itut": 2515,
      "Ġkids": 2516,
      "oura": 2517,
      "ĠWorld": 2518,
      "Ġwanted": 2519,
      "atform": 2520,
      "ĠAcc": 2521,
      "Ġitems": 2522,
      "ĠApr": 2523,
      "Ġmember": 2524,
      "Ġbott": 2525,
      "used": 2526,
      "Ġcorre": 2527,
      "Ġexcell": 2528,
      "Ġisn": 2529,
      "era": 2530,
      "Ġcredit": 2531,
      "Ġeasily": 2532,
      "IC": 2533,
      "Ġrole": 2534,
      "Ġattend": 2535,
      "Ġstat": 2536,
      "Ġprivate": 2537,
      "mit": 2538,
      "Ġsuggest": 2539,
      "Ġpractice": 2540,
      "rie": 2541,
      "Ġsle": 2542,
      "Ġversion": 2543,
      "ĠWill": 2544,
      "Ġoriginal": 2545,
      "airs": 2546,
      "ĠYork": 2547,
      "itting": 2548,
      "Ġprojects": 2549,
      "inks": 2550,
      "ĠThanks": 2551,
      "Ġpretty": 2552,
      "Ġcharacter": 2553,
      "ĠFin": 2554,
      "Ġreceived": 2555,
      "Ġinside": 2556,
      "Ġswe": 2557,
      "Ġfinal": 2558,
      "Ġbuilt": 2559,
      "ĠHigh": 2560,
      "Ġvia": 2561,
      "Ġdrive": 2562,
      "Ġaction": 2563,
      "Ġtotal": 2564,
      "Ġaccording": 2565,
      "head": 2566,
      "Ġcannot": 2567,
      "put": 2568,
      "Ġgrowth": 2569,
      "Ġlonger": 2570,
      "Ġrunning": 2571,
      "Ġ#": 2572,
      "itten": 2573,
      "ĠMr": 2574,
      "ĠAf": 2575,
      "Ġgeneral": 2576,
      "izing": 2577,
      "itor": 2578,
      "Ġchoice": 2579,
      "Ġeffic": 2580,
      "idge": 2581,
      "Ġstandard": 2582,
      "minist": 2583,
      "Ġhol": 2584,
      "ĠÐ": 2585,
      "Ġtrue": 2586,
      "action": 2587,
      "Ġvariety": 2588,
      "Ġapply": 2589,
      "AC": 2590,
      "âĢĵ": 2591,
      "Ġground": 2592,
      "Ġexact": 2593,
      "ression": 2594,
      "hib": 2595,
      "ada": 2596,
      "empt": 2597,
      "Ġcoun": 2598,
      "Ġbase": 2599,
      "Ġheld": 2600,
      "ĠPark": 2601,
      "Ġrespect": 2602,
      "oud": 2603,
      "ha": 2604,
      "aving": 2605,
      "Ġoption": 2606,
      "Ġamazing": 2607,
      "Ġprior": 2608,
      "Ġloss": 2609,
      "Ġallows": 2610,
      "Ġaf": 2611,
      "wor": 2612,
      "ĠJe": 2613,
      "16": 2614,
      "Ġmarketing": 2615,
      "ĠPar": 2616,
      "Ġconcern": 2617,
      "Ġsave": 2618,
      "Ġcollect": 2619,
      "Ġshows": 2620,
      "Ġsix": 2621,
      "ĠBar": 2622,
      "Ġdom": 2623,
      "ĠGe": 2624,
      "Ġworth": 2625,
      "Ġdeg": 2626,
      "Ġanim": 2627,
      "Ġmodern": 2628,
      "ĠBra": 2629,
      "Ġleave": 2630,
      "Ġofficial": 2631,
      "Ġtold": 2632,
      "Ġbehind": 2633,
      "aced": 2634,
      "Ġwords": 2635,
      "ĠPres": 2636,
      "ĠDep": 2637,
      "Ġbal": 2638,
      "Ġhon": 2639,
      "Ġsens": 2640,
      "Ġcool": 2641,
      "Ġneg": 2642,
      "Ġx": 2643,
      "Ġrequest": 2644,
      "Ġnetwork": 2645,
      "Ġtown": 2646,
      "Ġmix": 2647,
      "Ġill": 2648,
      "Ġcomputer": 2649,
      "ĠCor": 2650,
      "Ġupon": 2651,
      "pri": 2652,
      "oogle": 2653,
      "Ġweeks": 2654,
      "ana": 2655,
      "Ġquickly": 2656,
      "Ġproduction": 2657,
      "Ġrecent": 2658,
      "aining": 2659,
      "Ġcode": 2660,
      "erc": 2661,
      "Ġincluded": 2662,
      "ĠAre": 2663,
      "Ġlocation": 2664,
      "Ġmaterials": 2665,
      "aging": 2666,
      "ĠEm": 2667,
      "ground": 2668,
      "Ġproviding": 2669,
      "Ġrelated": 2670,
      "Ġarticle": 2671,
      "Ġstop": 2672,
      "Ġemb": 2673,
      "Ġlatest": 2674,
      "Ġcosts": 2675,
      "Ġpatients": 2676,
      "ĠMore": 2677,
      "ecut": 2678,
      "Ġannoun": 2679,
      "Ġreading": 2680,
      "Ġrad": 2681,
      "Ġintrodu": 2682,
      "Ġsun": 2683,
      "Ġinde": 2684,
      "ĠStates": 2685,
      "Ġapproach": 2686,
      "ceed": 2687,
      "Ġmedical": 2688,
      "ĠEd": 2689,
      "iring": 2690,
      "Ġteac": 2691,
      "Ġpurchase": 2692,
      "ĠInt": 2693,
      "Ġ2015": 2694,
      "na": 2695,
      "ysis": 2696,
      "ming": 2697,
      "Ġbooks": 2698,
      "Ġnecessary": 2699,
      "Ġlangu": 2700,
      "icles": 2701,
      "ox": 2702,
      "Ġmaintain": 2703,
      "ublic": 2704,
      "Ġsell": 2705,
      "RE": 2706,
      "Ġfram": 2707,
      "arth": 2708,
      "Ġlit": 2709,
      "atory": 2710,
      "Ġdisplay": 2711,
      "Ġcouple": 2712,
      "Ġconditions": 2713,
      "Ġsat": 2714,
      "Ġcele": 2715,
      "ĠEvery": 2716,
      "Ġprograms": 2717,
      "Ġfeed": 2718,
      "based": 2719,
      "Ġlower": 2720,
      "Ġinternational": 2721,
      "Ġability": 2722,
      "25": 2723,
      "Ġshall": 2724,
      "Ġstri": 2725,
      "Ġclick": 2726,
      "Ġterms": 2727,
      "Ġbath": 2728,
      "Ġplatform": 2729,
      "Ġpolicy": 2730,
      "Ġsaf": 2731,
      "cil": 2732,
      "Ġanyone": 2733,
      "ĠThen": 2734,
      "Ġworked": 2735,
      "Ġlooks": 2736,
      "akes": 2737,
      "Ġequipment": 2738,
      "Ġbi": 2739,
      "Ġdraw": 2740,
      "Ġdest": 2741,
      "urg": 2742,
      "just": 2743,
      "ĠOf": 2744,
      "Ġscreen": 2745,
      "oph": 2746,
      "Ġnorm": 2747,
      "Ġstock": 2748,
      "Ġflow": 2749,
      "ĠCenter": 2750,
      "ĠApril": 2751,
      "Ġtarget": 2752,
      "Ġprim": 2753,
      "Ġlives": 2754,
      "Ġparts": 2755,
      "Ġboard": 2756,
      "pose": 2757,
      "ipe": 2758,
      "ham": 2759,
      "reg": 2760,
      "14": 2761,
      "ively": 2762,
      "Ġseems": 2763,
      "ĠAlso": 2764,
      "Ġnothing": 2765,
      "ening": 2766,
      "Ġleaders": 2767,
      "ĠOff": 2768,
      "Ġkitchen": 2769,
      "Ġrecently": 2770,
      "Ġcause": 2771,
      "Ġarri": 2772,
      "Ġgen": 2773,
      "Ġcontract": 2774,
      "Ġtools": 2775,
      "ĠAut": 2776,
      "ĠAir": 2777,
      "ĠMost": 2778,
      "adem": 2779,
      "iam": 2780,
      "Ġtypes": 2781,
      "ese": 2782,
      "Ġsummer": 2783,
      "Ġfig": 2784,
      "ĠMc": 2785,
      "Ġbud": 2786,
      "ĠAustral": 2787,
      "ĠWest": 2788,
      "ĠCounty": 2789,
      "Ġsolution": 2790,
      "Ġchalleng": 2791,
      "anc": 2792,
      "erve": 2793,
      "Ġweight": 2794,
      "orage": 2795,
      "hold": 2796,
      "ĠUK": 2797,
      "Ġvi": 2798,
      "Ġ40": 2799,
      "Ġdescrib": 2800,
      "Ġsche": 2801,
      "my": 2802,
      "Ġarr": 2803,
      "Ġstudent": 2804,
      "Ġple": 2805,
      "Ġdeep": 2806,
      "ĠAct": 2807,
      "Ġsong": 2808,
      "Ġsubject": 2809,
      "ĠPol": 2810,
      "Ġgoal": 2811,
      "Ġcam": 2812,
      "Ġlevels": 2813,
      "Ġones": 2814,
      "nds": 2815,
      "Ġhair": 2816,
      "Ġrent": 2817,
      "Ġplant": 2818,
      "Ġmeeting": 2819,
      "Ġfresh": 2820,
      "Ġfa": 2821,
      "ters": 2822,
      "ĠLet": 2823,
      "ooking": 2824,
      "ĠArt": 2825,
      "ĠSw": 2826,
      "bor": 2827,
      "Ġcollection": 2828,
      "Ġexpert": 2829,
      "Ġpers": 2830,
      "17": 2831,
      "Ġhighly": 2832,
      "nal": 2833,
      "Ġcy": 2834,
      "Ġtit": 2835,
      "Ġsto": 2836,
      "Ġmov": 2837,
      "Ġdevice": 2838,
      "ĠJu": 2839,
      "Ġexcellent": 2840,
      "Ġleading": 2841,
      "icated": 2842,
      "inary": 2843,
      "Ġclos": 2844,
      "mas": 2845,
      "ky": 2846,
      "ĠGr": 2847,
      "Ġmobile": 2848,
      "Ġtrust": 2849,
      "60": 2850,
      "ached": 2851,
      "Ġbenefits": 2852,
      "Ġasked": 2853,
      "iddle": 2854,
      "ĠWind": 2855,
      "Ġmoment": 2856,
      "Ġdoor": 2857,
      "Ġcook": 2858,
      "Ġsepar": 2859,
      "Ġsett": 2860,
      "irit": 2861,
      "Ġsqu": 2862,
      "ĠOct": 2863,
      "Ġsolutions": 2864,
      "Ġfavorite": 2865,
      "Ġmass": 2866,
      "Ġsale": 2867,
      "ĠMarch": 2868,
      "Ġexplo": 2869,
      "ension": 2870,
      "Ġcondition": 2871,
      "lier": 2872,
      "ĠPa": 2873,
      "Ġsense": 2874,
      "Ġround": 2875,
      "Ġinj": 2876,
      "Ġspeed": 2877,
      "Ġ198": 2878,
      "Ġcand": 2879,
      "ĠVal": 2880,
      "Ġarch": 2881,
      "Ġnational": 2882,
      "iet": 2883,
      "Ġinvolved": 2884,
      "Ġresources": 2885,
      "Ġspeak": 2886,
      "Ġdecision": 2887,
      "ples": 2888,
      "Ġregist": 2889,
      "Ġencoura": 2890,
      "reng": 2891,
      "Ġplans": 2892,
      "Ġitself": 2893,
      "aby": 2894,
      "Ġimmedi": 2895,
      "Ġmatch": 2896,
      "ĠDay": 2897,
      "earch": 2898,
      "Ġminim": 2899,
      "ession": 2900,
      "Ġdigital": 2901,
      "ĠFirst": 2902,
      "Ġ2014": 2903,
      "Ġimplement": 2904,
      "Ġchance": 2905,
      "ĠGet": 2906,
      "Ġcas": 2907,
      "ĠMany": 2908,
      "Ġcommer": 2909,
      "Ġcases": 2910,
      "year": 2911,
      "Ġball": 2912,
      "irth": 2913,
      "ĠHome": 2914,
      "Ġrout": 2915,
      "uary": 2916,
      "like": 2917,
      "Ġmount": 2918,
      "ĠHer": 2919,
      "ma": 2920,
      "ivity": 2921,
      "Ġinstead": 2922,
      "Ġsection": 2923,
      "Ġsafety": 2924,
      "13": 2925,
      "sy": 2926,
      "Ġcountries": 2927,
      "//": 2928,
      "ĠEl": 2929,
      "Ġhelps": 2930,
      "ffects": 2931,
      "ological": 2932,
      "ging": 2933,
      "ishing": 2934,
      "Ġgives": 2935,
      "Ġenter": 2936,
      "cription": 2937,
      "Ðµ": 2938,
      "OT": 2939,
      "ĠThank": 2940,
      "Ġsmo": 2941,
      "mon": 2942,
      "Ġdirectly": 2943,
      "Ġobs": 2944,
      "Ġwrite": 2945,
      "Ġcareer": 2946,
      "\".": 2947,
      "Ġfix": 2948,
      "Ġdaily": 2949,
      "ĠHealth": 2950,
      "Ġgir": 2951,
      "Ġlate": 2952,
      "Ġthemselves": 2953,
      "OS": 2954,
      "Ġqual": 2955,
      "gu": 2956,
      "Ġmorning": 2957,
      "itely": 2958,
      "ĠOnce": 2959,
      "Ġhuge": 2960,
      "Ġmultiple": 2961,
      "ĠGreat": 2962,
      "Ġsource": 2963,
      "Ġ--": 2964,
      "Ġaverage": 2965,
      "ĠGoogle": 2966,
      "Ġprotect": 2967,
      "Ġ*": 2968,
      "arden": 2969,
      "nes": 2970,
      "now": 2971,
      "urer": 2972,
      "ĠAny": 2973,
      "Ġessential": 2974,
      "Ġwritten": 2975,
      "Ġimages": 2976,
      "Ġglobal": 2977,
      "Ġgiving": 2978,
      "arter": 2979,
      "Ġexcept": 2980,
      "Ġprices": 2981,
      "cast": 2982,
      "Ġpiece": 2983,
      "hood": 2984,
      "Ġlegal": 2985,
      "âĢĿ.": 2986,
      "://": 2987,
      "ĠSim": 2988,
      "Ġcert": 2989,
      "Ġrequirements": 2990,
      "Ġtouch": 2991,
      "Ġsil": 2992,
      "40": 2993,
      "Ġded": 2994,
      "Ġdocument": 2995,
      "Ġear": 2996,
      "Ġattention": 2997,
      "str": 2998,
      "aign": 2999,
      "ĠHouse": 3000,
      "Ġcenter": 3001,
      "ĠAc": 3002,
      "Ġlic": 3003,
      "Ġlif": 3004,
      "Ġrestaur": 3005,
      "Ġfully": 3006,
      "illing": 3007,
      "Ġinnov": 3008,
      "Ġhands": 3009,
      "Ġremember": 3010,
      "Ġimm": 3011,
      "asons": 3012,
      "Ġsaw": 3013,
      "dule": 3014,
      "Ġdeath": 3015,
      "OU": 3016,
      "Ġinteresting": 3017,
      "ĠInternational": 3018,
      "Ġplanning": 3019,
      "Ġri": 3020,
      "Ġaw": 3021,
      "Ġfloor": 3022,
      "Ġplayers": 3023,
      "sc": 3024,
      "ĠEven": 3025,
      "ĠDesign": 3026,
      "Ġfurn": 3027,
      "atives": 3028,
      "ĠAmerica": 3029,
      "wood": 3030,
      "iding": 3031,
      "erous": 3032,
      "Ġphotos": 3033,
      "board": 3034,
      "iture": 3035,
      "bit": 3036,
      "edding": 3037,
      "Ġorganization": 3038,
      "Ġpath": 3039,
      "Ġdise": 3040,
      "Ġmention": 3041,
      "Ġparents": 3042,
      "ĠSept": 3043,
      "Ġcommercial": 3044,
      "Ġcommit": 3045,
      "Ġgreen": 3046,
      "Ġextreme": 3047,
      "itation": 3048,
      "ãģ": 3049,
      "ondon": 3050,
      "Ġcondu": 3051,
      "Ġgroups": 3052,
      "Ð¾": 3053,
      "ĠCons": 3054,
      "Ġtraditional": 3055,
      "Ġcompletely": 3056,
      "Ġstreng": 3057,
      "Ġlost": 3058,
      "fl": 3059,
      "ude": 3060,
      "hern": 3061,
      "Ġdecided": 3062,
      "Ġlab": 3063,
      "ĠJune": 3064,
      "Ġdep": 3065,
      "Ġachieve": 3066,
      "Ġmyself": 3067,
      "Ġcomplex": 3068,
      "ĠAug": 3069,
      "verse": 3070,
      "Ġdeliver": 3071,
      "ĠMon": 3072,
      "isf": 3073,
      "ker": 3074,
      "Ġprevent": 3075,
      "avy": 3076,
      "Ġpositive": 3077,
      "Ġsurpr": 3078,
      "Ġplaying": 3079,
      "Ġaffect": 3080,
      "aged": 3081,
      "ĠAfric": 3082,
      "idered": 3083,
      "Ġreach": 3084,
      "Ġsites": 3085,
      "itable": 3086,
      "lim": 3087,
      "Ġtrip": 3088,
      "ĠBus": 3089,
      "AM": 3090,
      "Ġanswer": 3091,
      "Ġconcept": 3092,
      "Ġclient": 3093,
      "Ġconsult": 3094,
      "izes": 3095,
      "200": 3096,
      "Ġgoes": 3097,
      "ĠWell": 3098,
      "ĠWhe": 3099,
      "wise": 3100,
      "vey": 3101,
      "Ġattack": 3102,
      "ĠSince": 3103,
      "ĠDav": 3104,
      "ĠWhy": 3105,
      "eal": 3106,
      "Ġpicture": 3107,
      "Ġwarm": 3108,
      "ressed": 3109,
      "Ġdeveloped": 3110,
      "enty": 3111,
      "Ġglass": 3112,
      "gy": 3113,
      "haps": 3114,
      "onse": 3115,
      "amb": 3116,
      "ĠDirect": 3117,
      "Ġmachine": 3118,
      "Ġcreating": 3119,
      "ences": 3120,
      "aves": 3121,
      "ĠHar": 3122,
      "Ġgradu": 3123,
      "Ġcirc": 3124,
      "aches": 3125,
      "ĠEnglish": 3126,
      "ĠIndia": 3127,
      "Ġwel": 3128,
      "uel": 3129,
      "Ġnote": 3130,
      "Ġapplications": 3131,
      "ole": 3132,
      "Ġ:": 3133,
      "Ġaware": 3134,
      "ĠAssoci": 3135,
      "ades": 3136,
      "Ġprem": 3137,
      "Ġ2013": 3138,
      "org": 3139,
      "ĠChina": 3140,
      "Ġcross": 3141,
      "ĠSan": 3142,
      "Ġlimited": 3143,
      "ĠBlack": 3144,
      "Ġgold": 3145,
      "iff": 3146,
      "igation": 3147,
      "Ġconsist": 3148,
      "hel": 3149,
      "isions": 3150,
      "ought": 3151,
      "mission": 3152,
      "arant": 3153,
      "Ġinstru": 3154,
      "iction": 3155,
      "Ġcat": 3156,
      "ĠRed": 3157,
      "ties": 3158,
      "Ġsuccessful": 3159,
      "Ġblock": 3160,
      "ĠGl": 3161,
      "su": 3162,
      "dd": 3163,
      "Ġbusinesses": 3164,
      "Ġpartners": 3165,
      "ĠFace": 3166,
      "Ġinterested": 3167,
      "Ġdry": 3168,
      "ĠLondon": 3169,
      "Ġcorrect": 3170,
      "agn": 3171,
      "Ġrelease": 3172,
      "Ġtowards": 3173,
      "urb": 3174,
      "ĠMus": 3175,
      "Ġobtain": 3176,
      "ĠFeb": 3177,
      "lied": 3178,
      "ption": 3179,
      "Ġstorage": 3180,
      "Ġbecame": 3181,
      "Ġnature": 3182,
      "Ġlanguage": 3183,
      "Ġbag": 3184,
      "usion": 3185,
      "Ġwal": 3186,
      "Ġthinking": 3187,
      "ama": 3188,
      "ilies": 3189,
      "Ġprofession": 3190,
      "Ġconnect": 3191,
      "ĠSal": 3192,
      "idents": 3193,
      "Ġhear": 3194,
      "Ġcelebr": 3195,
      "Ġrev": 3196,
      "ĠPresident": 3197,
      "Ġvehicle": 3198,
      "Ġanalysis": 3199,
      "Ġemployees": 3200,
      "iles": 3201,
      "ĠFree": 3202,
      "Ġdru": 3203,
      "Ġpred": 3204,
      "Ġbudget": 3205,
      "Ġpromot": 3206,
      "Ġfair": 3207,
      "Ġfirm": 3208,
      "Ġrights": 3209,
      "hest": 3210,
      "Ġearn": 3211,
      "Ġsold": 3212,
      "ober": 3213,
      "ĠTV": 3214,
      "Ġexpected": 3215,
      "Ġfine": 3216,
      "artment": 3217,
      "Ġep": 3218,
      "ĠNet": 3219,
      "Ġbegan": 3220,
      "Ġavoid": 3221,
      "Ġheat": 3222,
      "Ġ22": 3223,
      "Ġadvant": 3224,
      "uses": 3225,
      "Ġ21": 3226,
      "ny": 3227,
      "Ġindividuals": 3228,
      "ĠEach": 3229,
      "yond": 3230,
      "ĠBro": 3231,
      "Ġobject": 3232,
      "Ġwish": 3233,
      "ĠBrit": 3234,
      "Ġattempt": 3235,
      "enge": 3236,
      "ĠGerm": 3237,
      "Ġplaces": 3238,
      "Ġoffe": 3239,
      "Ġhit": 3240,
      "Ġcampaign": 3241,
      "ara": 3242,
      "Ġhous": 3243,
      "--": 3244,
      "Ġwonderful": 3245,
      "Ġdiv": 3246,
      "ĠCoun": 3247,
      "Ġsometimes": 3248,
      "ica": 3249,
      "Ġconsidered": 3250,
      "cies": 3251,
      "ĠChristmas": 3252,
      "ĠRem": 3253,
      "Ġconstruction": 3254,
      "Ġmat": 3255,
      "Ġtick": 3256,
      "Ġpropos": 3257,
      "Ġdepart": 3258,
      "Ġopportunities": 3259,
      "Ġphysical": 3260,
      "pre": 3261,
      "Ġge": 3262,
      "ville": 3263,
      "Ġ2012": 3264,
      "rought": 3265,
      "Ġsupply": 3266,
      "ĠGroup": 3267,
      "Ġcarry": 3268,
      "Ġstarting": 3269,
      "ĠService": 3270,
      "ĠSer": 3271,
      "Ġload": 3272,
      "Ġemerg": 3273,
      "Ġcopy": 3274,
      "Ġfab": 3275,
      "Ġgar": 3276,
      "Ġcourt": 3277,
      "Ġformer": 3278,
      "Ġvac": 3279,
      "EC": 3280,
      "Ġhour": 3281,
      "Ġblood": 3282,
      "Ġunderstanding": 3283,
      "Ġhealthy": 3284,
      "Ġprec": 3285,
      "Ġaim": 3286,
      "Ġeye": 3287,
      "Ġwar": 3288,
      "Ġwrong": 3289,
      "Ġadminist": 3290,
      "vant": 3291,
      "Ġorganiz": 3292,
      "Ġdefinitely": 3293,
      "Ġdecor": 3294,
      "Ġinflu": 3295,
      "rast": 3296,
      "ĠGener": 3297,
      "ĠChar": 3298,
      "aly": 3299,
      "ĠWar": 3300,
      "Ġassess": 3301,
      "Ġpattern": 3302,
      "Ġgrowing": 3303,
      "Ġposted": 3304,
      "ĠJanuary": 3305,
      "chan": 3306,
      "reci": 3307,
      "Ġmoving": 3308,
      "Ġexactly": 3309,
      "zy": 3310,
      "ĠPat": 3311,
      "ruit": 3312,
      "ĠCalif": 3313,
      "ibly": 3314,
      "Ġinvestment": 3315,
      "Ġpurpose": 3316,
      "apan": 3317,
      "Ġappropri": 3318,
      "ulations": 3319,
      "Ġhor": 3320,
      "Ġdream": 3321,
      "Ġsituation": 3322,
      "Ġdire": 3323,
      "Ġmid": 3324,
      "Ġactivity": 3325,
      "Ġsubst": 3326,
      "Ġgoals": 3327,
      "We": 3328,
      "ĠAN": 3329,
      "uth": 3330,
      "ĠLa": 3331,
      "gar": 3332,
      "ĠJuly": 3333,
      "Ġaltern": 3334,
      "off": 3335,
      "ashing": 3336,
      "Ġfarm": 3337,
      "Ġphoto": 3338,
      "Ġmother": 3339,
      "ĠSund": 3340,
      "Ġregion": 3341,
      "Ġtemper": 3342,
      "OM": 3343,
      "ĠOver": 3344,
      "ĠAdd": 3345,
      "Ġmessage": 3346,
      "Ġweeke": 3347,
      "olute": 3348,
      "Ġprevious": 3349,
      "Ġguide": 3350,
      "ications": 3351,
      "itute": 3352,
      "alu": 3353,
      "Ġcash": 3354,
      "Ġsleep": 3355,
      "ester": 3356,
      "ength": 3357,
      "Ġdifference": 3358,
      "Ġentry": 3359,
      "Ġcapt": 3360,
      "ĠCommun": 3361,
      "Ġcateg": 3362,
      "ĠSeptember": 3363,
      "Ġli": 3364,
      "ari": 3365,
      "Ġslow": 3366,
      "Ġexerc": 3367,
      "Ġdark": 3368,
      "Ġtele": 3369,
      "Ġled": 3370,
      "Ġneigh": 3371,
      "ET": 3372,
      "Ġpictures": 3373,
      "Ġconvers": 3374,
      "Ġgets": 3375,
      "Ġeffort": 3376,
      "mm": 3377,
      "ederal": 3378,
      "Ġpublished": 3379,
      "Ġacqu": 3380,
      "rences": 3381,
      "Ġdamage": 3382,
      "ĠOctober": 3383,
      "Ġframe": 3384,
      "Ġbenefit": 3385,
      "Ġenh": 3386,
      "Ġuses": 3387,
      "ĠTechn": 3388,
      "Ġten": 3389,
      "ek": 3390,
      "ĠJes": 3391,
      "Ġwait": 3392,
      "Ġoffering": 3393,
      "Ġafford": 3394,
      "ĠTrans": 3395,
      "aries": 3396,
      "ĠFriday": 3397,
      "Ġanaly": 3398,
      "ĠTod": 3399,
      "isc": 3400,
      "Ġcontain": 3401,
      "Ġapart": 3402,
      "ornia": 3403,
      "Ġbank": 3404,
      "Ġresponse": 3405,
      "Ġsubs": 3406,
      "cember": 3407,
      "Ġbroad": 3408,
      "Ġhotel": 3409,
      "Ġ60": 3410,
      "Ð°": 3411,
      "Ġinternet": 3412,
      "antly": 3413,
      "Ġfrequ": 3414,
      "Ġintegr": 3415,
      "Ġult": 3416,
      "Ġcompon": 3417,
      "Ġfelt": 3418,
      "70": 3419,
      "iling": 3420,
      "raft": 3421,
      "Ġspot": 3422,
      "ĠCour": 3423,
      "ĠUp": 3424,
      "key": 3425,
      "gram": 3426,
      "orge": 3427,
      "ida": 3428,
      "oming": 3429,
      "Ġhtt": 3430,
      "Ġexecut": 3431,
      "ST": 3432,
      "80": 3433,
      "ĠDepartment": 3434,
      "Ġsatisf": 3435,
      "Ġbur": 3436,
      "ĠFacebook": 3437,
      "Ġaward": 3438,
      "ING": 3439,
      "ĠMich": 3440,
      "ague": 3441,
      "ĠIN": 3442,
      "ĠOut": 3443,
      "Ġcontribut": 3444,
      "Ġaccom": 3445,
      "ĠProf": 3446,
      "Ġjud": 3447,
      "ovember": 3448,
      "Ġfamilies": 3449,
      "ĠMod": 3450,
      "Ġclub": 3451,
      "Ġbehav": 3452,
      "Ġrates": 3453,
      "ĠGood": 3454,
      "Ġsus": 3455,
      "ography": 3456,
      "ĠOther": 3457,
      "Ġreplace": 3458,
      "Ġpressure": 3459,
      "ĠKing": 3460,
      "Ġpaid": 3461,
      "Ġeat": 3462,
      "ĠServices": 3463,
      "pects": 3464,
      "sp": 3465,
      "Ġsmart": 3466,
      "mat": 3467,
      "Ġgas": 3468,
      "Ġhistor": 3469,
      "Ġproced": 3470,
      "Ġeasier": 3471,
      "ares": 3472,
      "Ġbirth": 3473,
      "band": 3474,
      "Ġpages": 3475,
      "Ġpolitical": 3476,
      "right": 3477,
      "Ġ23": 3478,
      "Ġpull": 3479,
      "uk": 3480,
      "attle": 3481,
      "Ġstuff": 3482,
      "Ġdevices": 3483,
      "porate": 3484,
      "rows": 3485,
      "tee": 3486,
      "Ġhosp": 3487,
      "Ġserve": 3488,
      "Ġsurround": 3489,
      "ĠRead": 3490,
      "Ġviol": 3491,
      "ID": 3492,
      "ĠSatur": 3493,
      "Ġtransfer": 3494,
      "ĠCr": 3495,
      "ams": 3496,
      "LL": 3497,
      "Ġexperienced": 3498,
      "zz": 3499,
      "amed": 3500,
      "Ġloved": 3501,
      "set": 3502,
      "ĠCalifornia": 3503,
      "Ġreduce": 3504,
      "Ġstru": 3505,
      "ĠBusiness": 3506,
      "Ġroll": 3507,
      "ĠCle": 3508,
      "Ġshop": 3509,
      "error": 3510,
      "ĠJapan": 3511,
      "Ġlog": 3512,
      "Ġcertainly": 3513,
      "sequ": 3514,
      "Ġnut": 3515,
      "ĠDecember": 3516,
      "cause": 3517,
      "Ġschools": 3518,
      "Ġbasis": 3519,
      "Ġdistribut": 3520,
      "Ġoffered": 3521,
      "Ġstage": 3522,
      "rial": 3523,
      "ancy": 3524,
      "Ġadjust": 3525,
      "Ġeffects": 3526,
      "Ġactive": 3527,
      "AP": 3528,
      "Ġmark": 3529,
      "Ġfight": 3530,
      "Ġfeeling": 3531,
      "icate": 3532,
      "Ġdelivery": 3533,
      "Ġadult": 3534,
      "ronic": 3535,
      "Ġguarant": 3536,
      "Ġunit": 3537,
      "Ġowners": 3538,
      "Ġadvice": 3539,
      "Ġwasn": 3540,
      "oms": 3541,
      "Ġcharge": 3542,
      "Ġver": 3543,
      "ĠAugust": 3544,
      "anch": 3545,
      "Ġoverall": 3546,
      "ĠNovember": 3547,
      "Ġspent": 3548,
      "Ġinitial": 3549,
      "ĠSystem": 3550,
      "Ġprefer": 3551,
      "Ġdemand": 3552,
      "Ġlots": 3553,
      "rench": 3554,
      "Ġreleased": 3555,
      "Ġgave": 3556,
      "Ġmaxim": 3557,
      "Ġdog": 3558,
      "Ġsurface": 3559,
      "ĠAlthough": 3560,
      "Ġtransport": 3561,
      "arily": 3562,
      "Ġappreci": 3563,
      "Ġculture": 3564,
      "Ġdefe": 3565,
      "ira": 3566,
      "Ġindepend": 3567,
      "urt": 3568,
      "Ġregarding": 3569,
      "Ġcomment": 3570,
      "Ġshown": 3571,
      "Ġlack": 3572,
      "Ġimag": 3573,
      "Ġpool": 3574,
      "lin": 3575,
      "formation": 3576,
      "Ġoptim": 3577,
      "word": 3578,
      "ĠBel": 3579,
      "ĠCompany": 3580,
      "Ġbasic": 3581,
      "ressive": 3582,
      "ibrary": 3583,
      "EO": 3584,
      "ĠOp": 3585,
      "Ġadvert": 3586,
      "het": 3587,
      "Ġreported": 3588,
      "Ġtruly": 3589,
      "Ġsetting": 3590,
      "ses": 3591,
      "Ġhomes": 3592,
      "aint": 3593,
      "Ġfeet": 3594,
      "24": 3595,
      "Ġtrade": 3596,
      "ĠSee": 3597,
      "'d": 3598,
      "Ġdegree": 3599,
      "ils": 3600,
      "Ġassociated": 3601,
      "pite": 3602,
      "Ġinterview": 3603,
      "Ġgift": 3604,
      "Ġextend": 3605,
      "Ġcab": 3606,
      "Ġexisting": 3607,
      "Ġter": 3608,
      "Ġoccur": 3609,
      "ashion": 3610,
      "place": 3611,
      "Ġincreasing": 3612,
      "Ġappoint": 3613,
      "Ġaff": 3614,
      "Ġuseful": 3615,
      "Ġdemon": 3616,
      "Ġcomfortable": 3617,
      "Ġeconomic": 3618,
      "ipping": 3619,
      "Ġtried": 3620,
      "Ġbeyond": 3621,
      "change": 3622,
      "ĠSunday": 3623,
      "Th": 3624,
      "Ġreve": 3625,
      "itary": 3626,
      "ĠBest": 3627,
      "Ġstress": 3628,
      "ĠTHE": 3629,
      "Ġstories": 3630,
      "Ġwedding": 3631,
      "vis": 3632,
      "Ġheard": 3633,
      "inner": 3634,
      "Ġfiles": 3635,
      "wide": 3636,
      "Ġbrought": 3637,
      "ube": 3638,
      "ĠPost": 3639,
      "Ġrespond": 3640,
      "pa": 3641,
      "Ġbeginning": 3642,
      "Ġincreased": 3643,
      "Ġing": 3644,
      "ĠPri": 3645,
      "unt": 3646,
      "ĠSaturday": 3647,
      "ĠClick": 3648,
      "ĠInter": 3649,
      "Ġresponsible": 3650,
      "Ġ2011": 3651,
      "ĠEast": 3652,
      "ĠJesus": 3653,
      "asc": 3654,
      "Ġplayed": 3655,
      "Ġhighest": 3656,
      "Ġble": 3657,
      "house": 3658,
      "Ġjoin": 3659,
      "etic": 3660,
      "Ġdy": 3661,
      "Ġpatient": 3662,
      "ĠWindows": 3663,
      "Ġrepair": 3664,
      "mitted": 3665,
      "ffee": 3666,
      "ĠMake": 3667,
      "Ġmeaning": 3668,
      "des": 3669,
      "Ġband": 3670,
      "istry": 3671,
      "ĠCollege": 3672,
      "ĠPort": 3673,
      "Ġ2010": 3674,
      "ĠÂ£": 3675,
      "idential": 3676,
      "Ġideal": 3677,
      "Ġspirit": 3678,
      "iced": 3679,
      "ett": 3680,
      "Ġeyes": 3681,
      "vest": 3682,
      "useum": 3683,
      "ded": 3684,
      "lies": 3685,
      "Ġcollege": 3686,
      "Ġblue": 3687,
      "Ġaccur": 3688,
      "icks": 3689,
      "itect": 3690,
      "ĠEuropean": 3691,
      "Ġmeasure": 3692,
      "Ġpayment": 3693,
      "Ġproduce": 3694,
      "Ġcompleted": 3695,
      "Ġbaby": 3696,
      "Ġparticularly": 3697,
      "ulated": 3698,
      "ka": 3699,
      "sych": 3700,
      "olf": 3701,
      "Ġlargest": 3702,
      "Ġund": 3703,
      "99": 3704,
      "Ġdouble": 3705,
      "iety": 3706,
      "lock": 3707,
      "Ġstructure": 3708,
      "ruary": 3709,
      "Ġweather": 3710,
      "Ġfinish": 3711,
      "ĠInternet": 3712,
      "door": 3713,
      "ĠiP": 3714,
      "dom": 3715,
      "ĠLaw": 3716,
      "erved": 3717,
      "ager": 3718,
      "Ġimmediately": 3719,
      "Ġweekend": 3720,
      "ened": 3721,
      "Ġsoci": 3722,
      "Ġappropriate": 3723,
      "Ġplayer": 3724,
      "Ġpet": 3725,
      "Ġemot": 3726,
      "In": 3727,
      "umn": 3728,
      "aks": 3729,
      "Ġabsolute": 3730,
      "Ġborn": 3731,
      "Ġthanks": 3732,
      "Ġselection": 3733,
      "PS": 3734,
      "Ġhelping": 3735,
      "Ġvot": 3736,
      "bert": 3737,
      "ĠDel": 3738,
      "Ġcapital": 3739,
      "Ġson": 3740,
      "oke": 3741,
      "St": 3742,
      "ĠRec": 3743,
      "Ġdead": 3744,
      "Ġsort": 3745,
      "Ġthous": 3746,
      "Ġcollabor": 3747,
      "body": 3748,
      "ĠCanada": 3749,
      "Ġannual": 3750,
      "iques": 3751,
      "Ġlines": 3752,
      "ĠToday": 3753,
      "ĠCheck": 3754,
      "Ġnumbers": 3755,
      "Ġstraight": 3756,
      "Ġefficient": 3757,
      "Ġstudies": 3758,
      "22": 3759,
      "ĠRuss": 3760,
      "Ġstrategy": 3761,
      "Ġdro": 3762,
      "Ġcontinu": 3763,
      "oly": 3764,
      "ĠSpe": 3765,
      "ĠStreet": 3766,
      "porary": 3767,
      "Ġextremely": 3768,
      "Ġreasons": 3769,
      "Ġnotice": 3770,
      "Ġclin": 3771,
      "Ġnormal": 3772,
      "Ġelectric": 3773,
      "Ġprotection": 3774,
      "Ġcreative": 3775,
      "ologies": 3776,
      "Ġfinally": 3777,
      "ault": 3778,
      "rapy": 3779,
      "enior": 3780,
      "hens": 3781,
      "Ġcold": 3782,
      "Ġrock": 3783,
      "Ġcoffee": 3784,
      "ĠSch": 3785,
      "aling": 3786,
      "Ġutil": 3787,
      "istics": 3788,
      "Ġmodels": 3789,
      "Ġbottom": 3790,
      "hy": 3791,
      "Ġevalu": 3792,
      "bon": 3793,
      "Ġcru": 3794,
      "ancing": 3795,
      "ously": 3796,
      "Ġreli": 3797,
      "Ġfell": 3798,
      "Ġru": 3799,
      "Ġwindow": 3800,
      "Ġ28": 3801,
      "Ġmovie": 3802,
      "nded": 3803,
      "ĠMond": 3804,
      "Ġthank": 3805,
      "Ġfurniture": 3806,
      "ĠFebruary": 3807,
      "ĠYes": 3808,
      "Ġcandid": 3809,
      "ĠĠ": 3810,
      "ĠBecause": 3811,
      "more": 3812,
      "Ġstates": 3813,
      "Ġdisease": 3814,
      "ĠGold": 3815,
      "Ġ+": 3816,
      "ĠPal": 3817,
      "field": 3818,
      "Ġdat": 3819,
      "ĠIT": 3820,
      "que": 3821,
      "ĠMarket": 3822,
      "Ġfat": 3823,
      "Ġbatter": 3824,
      "iment": 3825,
      "Ġchanged": 3826,
      "Ġbackground": 3827,
      "Ġdress": 3828,
      "Ġprinc": 3829,
      "undred": 3830,
      "Ġplus": 3831,
      "Ġ26": 3832,
      "inated": 3833,
      "Ġsust": 3834,
      "Ġdoll": 3835,
      "Ġchallenge": 3836,
      "ipped": 3837,
      "Ġrelax": 3838,
      "Ġsty": 3839,
      "Ġmaybe": 3840,
      "Ġteams": 3841,
      "sec": 3842,
      "Ġpow": 3843,
      "ooks": 3844,
      "Ġpowerful": 3845,
      "Ġfra": 3846,
      "Ġpen": 3847,
      "ĠUse": 3848,
      "itter": 3849,
      "Ġtrain": 3850,
      "Ġmethods": 3851,
      "ĠPlay": 3852,
      "Ġbedroom": 3853,
      "estern": 3854,
      "Ġnation": 3855,
      "Ġitem": 3856,
      "venue": 3857,
      "ani": 3858,
      "Ġfant": 3859,
      "icip": 3860,
      "Ġhop": 3861,
      "hol": 3862,
      "__": 3863,
      "oul": 3864,
      "atever": 3865,
      "Ġbelie": 3866,
      "Ġknew": 3867,
      "Ġcards": 3868,
      "ĠDown": 3869,
      "Ġgreater": 3870,
      "Ġchurch": 3871,
      "Ġcompared": 3872,
      "Ġidentify": 3873,
      "ĠFind": 3874,
      "23": 3875,
      "ĠIS": 3876,
      "ĠProgram": 3877,
      "Ġremain": 3878,
      "anging": 3879,
      "Ġincome": 3880,
      "Ġliter": 3881,
      "Ġturned": 3882,
      "roid": 3883,
      "Ġpieces": 3884,
      "ĠGreen": 3885,
      "ĠHot": 3886,
      "Ġnearly": 3887,
      "usive": 3888,
      "Ġcolle": 3889,
      "Ġsteps": 3890,
      "ĠIndian": 3891,
      "Ġestate": 3892,
      "Ġcove": 3893,
      "ĠAss": 3894,
      "ĠSpr": 3895,
      "duc": 3896,
      "Ġlength": 3897,
      "ned": 3898,
      "AD": 3899,
      "ĠâĢ¢": 3900,
      "ĠDevelop": 3901,
      "ĠPC": 3902,
      "Ġserved": 3903,
      "Ġinstitut": 3904,
      "ĠAustralia": 3905,
      "tenance": 3906,
      "atically": 3907,
      "ray": 3908,
      "Ġscience": 3909,
      "Â®": 3910,
      "ĠDuring": 3911,
      "col": 3912,
      "Ġcho": 3913,
      "Ġmechan": 3914,
      "force": 3915,
      "ĠFound": 3916,
      "Ġvict": 3917,
      "ders": 3918,
      "Ġrules": 3919,
      "inate": 3920,
      "ris": 3921,
      "Ġsecure": 3922,
      "Ġconven": 3923,
      "ĠWeb": 3924,
      "Ġ|": 3925,
      "Ġchem": 3926,
      "acity": 3927,
      "bum": 3928,
      "Ġsweet": 3929,
      "Ġestablished": 3930,
      "atively": 3931,
      "ĠSuper": 3932,
      "ĠCouncil": 3933,
      "Ġreports": 3934,
      "Ġexhib": 3935,
      "rel": 3936,
      "ĠWhite": 3937,
      "iant": 3938,
      "ĠAccording": 3939,
      "Ġremo": 3940,
      "ĠHave": 3941,
      "Ġhelped": 3942,
      "Ġexpand": 3943,
      "Ġsaying": 3944,
      "Ġbutton": 3945,
      "Ġalthough": 3946,
      "Ġlarger": 3947,
      "Ġjourney": 3948,
      "Ġrequires": 3949,
      "arc": 3950,
      "ĠMa": 3951,
      "aughter": 3952,
      "iny": 3953,
      "Ġlands": 3954,
      "Ġscient": 3955,
      "Ġgrand": 3956,
      "ĠDist": 3957,
      "Ġalone": 3958,
      "Ġsharing": 3959,
      "Ġ27": 3960,
      "ivil": 3961,
      "Ġallowed": 3962,
      "Ġvill": 3963,
      "ĠMac": 3964,
      "Ġevidence": 3965,
      "ĠMo": 3966,
      "ĠFlor": 3967,
      "ĠSupp": 3968,
      "Ġgarden": 3969,
      "ĠOb": 3970,
      "odes": 3971,
      "Ġoccas": 3972,
      "Ġtraffic": 3973,
      "Ġstrength": 3974,
      "Ġmanage": 3975,
      "ustr": 3976,
      "Ġpaint": 3977,
      "coming": 3978,
      "eria": 3979,
      "Ġâ": 3980,
      "Ġsports": 3981,
      "Ġbathroom": 3982,
      "Ġmiddle": 3983,
      "Ġahead": 3984,
      "Ġwild": 3985,
      "Ġconnection": 3986,
      "ulf": 3987,
      "Ġadvantage": 3988,
      "unte": 3989,
      "Ġpark": 3990,
      "lands": 3991,
      "Ġcraft": 3992,
      "Ġflav": 3993,
      "icing": 3994,
      "Ġattract": 3995,
      "Ġmis": 3996,
      "phone": 3997,
      "Ġflex": 3998,
      "aker": 3999,
      "esome": 4000,
      "order": 4001,
      "Ġincred": 4002,
      "ĠSub": 4003,
      "Ġwants": 4004,
      "ĠRet": 4005,
      "ĠBoard": 4006,
      "Ġtitle": 4007,
      "ĠProdu": 4008,
      "ĠAssociation": 4009,
      "Ġreviews": 4010,
      "Ġpeace": 4011,
      "Ġcommunication": 4012,
      "ION": 4013,
      "omen": 4014,
      "Ġannounced": 4015,
      "Ġchann": 4016,
      "ĠMonday": 4017,
      "Ġcamera": 4018,
      "Ġmiles": 4019,
      "inter": 4020,
      "Ġletter": 4021,
      "Ġrace": 4022,
      "ulate": 4023,
      "Ġgraph": 4024,
      "ĠGovern": 4025,
      "Ġdriving": 4026,
      "unk": 4027,
      "nown": 4028,
      "ĠOh": 4029,
      "ĠDavid": 4030,
      "agram": 4031,
      "ĠAnt": 4032,
      "Ġiniti": 4033,
      "Ġwear": 4034,
      "Ġwoman": 4035,
      "see": 4036,
      "Ġretail": 4037,
      "ĠIr": 4038,
      "ugh": 4039,
      "Ġtechnical": 4040,
      "term": 4041,
      "Ġspread": 4042,
      "ĠII": 4043,
      "Ġfinished": 4044,
      "Ġserious": 4045,
      "Ġearlier": 4046,
      "ĠResearch": 4047,
      "Ġfill": 4048,
      "Ġviews": 4049,
      "Ġmoved": 4050,
      "ĠPaul": 4051,
      "Ġmill": 4052,
      "itude": 4053,
      "Ġexperts": 4054,
      "Ġtips": 4055,
      "ĠEduc": 4056,
      "Ġefforts": 4057,
      "IG": 4058,
      "ĠSom": 4059,
      "ĠLoc": 4060,
      "IP": 4061,
      "Ġjobs": 4062,
      "Ġprofessionals": 4063,
      "Ġgenerally": 4064,
      "Ġorganizations": 4065,
      "EL": 4066,
      "ald": 4067,
      "Ġonto": 4068,
      "Ġhundred": 4069,
      "Ġtim": 4070,
      "Ġmaster": 4071,
      "Ġtag": 4072,
      "ĠMicro": 4073,
      "ĠLove": 4074,
      "Ġexperiences": 4075,
      "eds": 4076,
      "la": 4077,
      "Ġtur": 4078,
      "cape": 4079,
      "Ġaren": 4080,
      "Ġremove": 4081,
      "Ġlooked": 4082,
      "Ġprimary": 4083,
      "ĠLear": 4084,
      "ĠVis": 4085,
      "well": 4086,
      "Ġfather": 4087,
      "Ġbow": 4088,
      "ounds": 4089,
      "Ġdoub": 4090,
      "Ġowner": 4091,
      "Ġstandards": 4092,
      "Ġcovered": 4093,
      "Ġpartner": 4094,
      "ĠIns": 4095,
      "ĠAv": 4096,
      "Ġdelic": 4097,
      "ĠHall": 4098,
      "à¤": 4099,
      "Ġshoot": 4100,
      "care": 4101,
      "Ġtask": 4102,
      "ĠClass": 4103,
      "Ġentertain": 4104,
      "Ġschedule": 4105,
      "Ġfollowed": 4106,
      "ico": 4107,
      "Ġvalues": 4108,
      "Ġslight": 4109,
      "hips": 4110,
      "ĠWashing": 4111,
      "Ġguid": 4112,
      "encies": 4113,
      "ĠOffice": 4114,
      "Ġstrugg": 4115,
      "ĠMor": 4116,
      "Ġdiscount": 4117,
      "vin": 4118,
      "reed": 4119,
      "Ġcry": 4120,
      "EM": 4121,
      "Ġthreat": 4122,
      "Ġ197": 4123,
      "Ġcancer": 4124,
      "Ġopin": 4125,
      "Ġcritical": 4126,
      "dy": 4127,
      "Ġchallenges": 4128,
      "Ġactual": 4129,
      "Ġelements": 4130,
      "pm": 4131,
      "Ġbillion": 4132,
      "Ġmanufacturer": 4133,
      "ĠAnother": 4134,
      "Ġsand": 4135,
      "Ġcleaning": 4136,
      "Ġdetermine": 4137,
      "Ġsurv": 4138,
      "ĠPlan": 4139,
      "Ġprogress": 4140,
      "Ġfinding": 4141,
      "Ġsteel": 4142,
      "Ġresist": 4143,
      "âĢĿ,": 4144,
      "Ġcells": 4145,
      "ribute": 4146,
      "Ġhandle": 4147,
      "ĠBook": 4148,
      "Ġfriendly": 4149,
      "It": 4150,
      "Ġstream": 4151,
      "45": 4152,
      "Ġupdate": 4153,
      "lying": 4154,
      "Ġwine": 4155,
      "Ġpolice": 4156,
      "Ġshopping": 4157,
      "fast": 4158,
      "Ġperhaps": 4159,
      "Ġshared": 4160,
      "Ġexplore": 4161,
      "works": 4162,
      "Ġacadem": 4163,
      "ĠWhether": 4164,
      "Ġtherefore": 4165,
      "ĠMem": 4166,
      "Ġcolors": 4167,
      "overed": 4168,
      "mar": 4169,
      "Ġdeveloping": 4170,
      "tra": 4171,
      "Ġdemonstr": 4172,
      "Ġsolid": 4173,
      "Ġexcl": 4174,
      "Ġrefer": 4175,
      "Ġden": 4176,
      "ael": 4177,
      "pective": 4178,
      "Ġmatt": 4179,
      "Ġroof": 4180,
      "Ġloan": 4181,
      "enses": 4182,
      "Ġcheap": 4183,
      "Ġadvanced": 4184,
      "Ġopening": 4185,
      "ss": 4186,
      "ctors": 4187,
      "ĠFrench": 4188,
      "orrow": 4189,
      "Ġteaching": 4190,
      "ĠTex": 4191,
      "ommod": 4192,
      "Ġcontains": 4193,
      "Ġharm": 4194,
      "ĠLast": 4195,
      "ĠCong": 4196,
      "Ġholiday": 4197,
      "Ġhimself": 4198,
      "Ġdedicated": 4199,
      "hop": 4200,
      "Ġcup": 4201,
      "cel": 4202,
      "ios": 4203,
      "gen": 4204,
      "icking": 4205,
      "standing": 4206,
      "ĠDec": 4207,
      "Ġincor": 4208,
      "ament": 4209,
      "ĠYear": 4210,
      "Ġparties": 4211,
      "Ġbalance": 4212,
      "Ġpros": 4213,
      "estival": 4214,
      "Ġmemory": 4215,
      "ĠCall": 4216,
      "Ġheavy": 4217,
      "aled": 4218,
      "Ġserver": 4219,
      "rey": 4220,
      "ĠCur": 4221,
      "Ġforce": 4222,
      "Ġbrain": 4223,
      "down": 4224,
      "ĠClub": 4225,
      "rote": 4226,
      "Ġcit": 4227,
      "Ġvirt": 4228,
      "Ġtalking": 4229,
      "Ġfacilities": 4230,
      "Ġfear": 4231,
      "Ġtrou": 4232,
      "Ġmetal": 4233,
      "Ġban": 4234,
      "Ġcast": 4235,
      "ĠManagement": 4236,
      "ales": 4237,
      "Ġsmooth": 4238,
      "Ġwelcome": 4239,
      "35": 4240,
      "Ġingred": 4241,
      "Ġlimit": 4242,
      "ĠJack": 4243,
      "Ġassign": 4244,
      "Ġshape": 4245,
      "Ġpoor": 4246,
      "US": 4247,
      "Ġadop": 4248,
      "alt": 4249,
      "Ġmovement": 4250,
      "Ġwhose": 4251,
      "Ġtree": 4252,
      "Ġalbum": 4253,
      "vision": 4254,
      "Ġlisted": 4255,
      "Ġestablish": 4256,
      "OL": 4257,
      "Ġdete": 4258,
      "ixt": 4259,
      "Ġtend": 4260,
      "Ġhighlight": 4261,
      "ĠCourt": 4262,
      "Ġsession": 4263,
      "ĠWashington": 4264,
      "Ġpassion": 4265,
      "Ġfactors": 4266,
      "ying": 4267,
      "Ġmission": 4268,
      "ĠBritish": 4269,
      "Ġhus": 4270,
      "Ġwinter": 4271,
      "Ġdrop": 4272,
      "Ġstar": 4273,
      "ãĤ": 4274,
      "Ġdiscover": 4275,
      "ĠPeople": 4276,
      "iency": 4277,
      "Ġforms": 4278,
      "Ġseeing": 4279,
      "Ġproduced": 4280,
      "iber": 4281,
      "orial": 4282,
      "iation": 4283,
      "roud": 4284,
      "inese": 4285,
      "acing": 4286,
      "Ġpresented": 4287,
      "Ġbreat": 4288,
      "Ġvoice": 4289,
      "Ġrooms": 4290,
      "Ġstatement": 4291,
      "ĠMet": 4292,
      "Ġtechniques": 4293,
      "Ġprepared": 4294,
      "bu": 4295,
      "ĠChurch": 4296,
      "rem": 4297,
      "Ġplaced": 4298,
      "Ġselected": 4299,
      "Ġcounter": 4300,
      "ĠST": 4301,
      "ĠDem": 4302,
      "Ġcomments": 4303,
      "ĠAC": 4304,
      "Ġcars": 4305,
      "ĠTake": 4306,
      "Ġ2009": 4307,
      "Ġpopulation": 4308,
      "BC": 4309,
      "semb": 4310,
      "ew": 4311,
      "osing": 4312,
      "Ġ80": 4313,
      "Ġlearned": 4314,
      "Ġrich": 4315,
      "imb": 4316,
      "lines": 4317,
      "Ġsym": 4318,
      "Ġaudience": 4319,
      "inger": 4320,
      "Ġmotor": 4321,
      "Ġmaintenance": 4322,
      "Ġrelevant": 4323,
      "Ġlinks": 4324,
      "itors": 4325,
      "ĠWed": 4326,
      "Ġplenty": 4327,
      "Ġwife": 4328,
      "ĠPhot": 4329,
      "Ġpray": 4330,
      "Ġtesting": 4331,
      "Ġplants": 4332,
      "rael": 4333,
      "ij": 4334,
      "fit": 4335,
      "Ġfashion": 4336,
      "Ġquarter": 4337,
      "Ġ>": 4338,
      "Ġproperties": 4339,
      "Ġhaven": 4340,
      "Ġnames": 4341,
      "ĠSk": 4342,
      "Ġkeeping": 4343,
      "90": 4344,
      "ero": 4345,
      "ĠLike": 4346,
      "Ġfaith": 4347,
      "text": 4348,
      "Ġclasses": 4349,
      "othing": 4350,
      "icine": 4351,
      "Ġwaste": 4352,
      "):": 4353,
      "isation": 4354,
      "ĠRoad": 4355,
      "ĠAnn": 4356,
      "Ġnamed": 4357,
      "Ġseven": 4358,
      "Ġguests": 4359,
      "Ġstation": 4360,
      "Ġcommunities": 4361,
      "Ġspring": 4362,
      "Ġevening": 4363,
      "rupt": 4364,
      "Ġbuying": 4365,
      "Ġ2008": 4366,
      "Ġcentury": 4367,
      "Ġaccommod": 4368,
      "rief": 4369,
      "Ġshot": 4370,
      "Ġeight": 4371,
      "enture": 4372,
      "ĠWater": 4373,
      "100": 4374,
      "Ġfish": 4375,
      "raw": 4376,
      "Ġfunds": 4377,
      "Ġcouldn": 4378,
      "ĠFlorida": 4379,
      "Ġcapacity": 4380,
      "Ġwire": 4381,
      "ago": 4382,
      "Ġsuff": 4383,
      "ervation": 4384,
      "Ġoperations": 4385,
      "ĠAP": 4386,
      "Ġforget": 4387,
      "Ġir": 4388,
      "Ġcentral": 4389,
      "Ġdirection": 4390,
      "Ġdang": 4391,
      "Ġdiet": 4392,
      "icon": 4393,
      "Ġreflect": 4394,
      "soft": 4395,
      "lation": 4396,
      "ĠâĢ¦": 4397,
      "Ġdriver": 4398,
      "ĠSur": 4399,
      "Ġluck": 4400,
      "Ġkept": 4401,
      "apter": 4402,
      "mark": 4403,
      "MS": 4404,
      "ston": 4405,
      "Ġstatus": 4406,
      "ĠTy": 4407,
      "Ġmicro": 4408,
      "ĠGeneral": 4409,
      "rehens": 4410,
      "Ġadding": 4411,
      "ĠCare": 4412,
      "ĠUnder": 4413,
      "actions": 4414,
      "Ġrelig": 4415,
      "Ġfan": 4416,
      "Ġhom": 4417,
      "ortunately": 4418,
      "Ġpractices": 4419,
      "za": 4420,
      "Ġcalc": 4421,
      "Ġgain": 4422,
      "ula": 4423,
      "Ġcompetition": 4424,
      "Ġvisitors": 4425,
      "overy": 4426,
      "azon": 4427,
      "using": 4428,
      "ĠCustom": 4429,
      "oes": 4430,
      "....": 4431,
      "ĠSa": 4432,
      "Ġ90": 4433,
      "osure": 4434,
      "Ġoperating": 4435,
      "Ġdesigns": 4436,
      "Ġbiggest": 4437,
      "Ġice": 4438,
      "Ġgone": 4439,
      "Ġfee": 4440,
      "yn": 4441,
      "Ġrepe": 4442,
      "ĠLake": 4443,
      "Ġhelpful": 4444,
      "\",": 4445,
      "pet": 4446,
      "nding": 4447,
      "Ġbeach": 4448,
      ".)": 4449,
      "ught": 4450,
      "ĠTexas": 4451,
      "Ġfigure": 4452,
      "ĠWilliam": 4453,
      "Ġinstallation": 4454,
      "ĠMag": 4455,
      "free": 4456,
      "Ġsmaller": 4457,
      "oos": 4458,
      "88": 4459,
      "Ġadvance": 4460,
      "Ġarchitect": 4461,
      "Ġseparate": 4462,
      "ĠBay": 4463,
      "Ġtemperature": 4464,
      "Ġexercise": 4465,
      "ĠRiver": 4466,
      "Ġmer": 4467,
      "rees": 4468,
      "Ġflu": 4469,
      "ĠApple": 4470,
      "Ð¸": 4471,
      "Ġpush": 4472,
      "ĠThurs": 4473,
      "Ġconference": 4474,
      "Ġ...": 4475,
      "65": 4476,
      "Ġscen": 4477,
      "Ġvisual": 4478,
      "amm": 4479,
      "ĠMart": 4480,
      "ym": 4481,
      "box": 4482,
      "!!!": 4483,
      "ady": 4484,
      "Ġ29": 4485,
      "Ġworkers": 4486,
      "LE": 4487,
      "Ġcloud": 4488,
      "rig": 4489,
      "Ġrestaurant": 4490,
      "Ġinvestig": 4491,
      "Ġsector": 4492,
      "sey": 4493,
      "Ġremind": 4494,
      "Ġwat": 4495,
      "Ġnumerous": 4496,
      "Ġdirector": 4497,
      "75": 4498,
      "Ġhusband": 4499,
      "Ġapproxim": 4500,
      "Ġvolunte": 4501,
      "ĠBank": 4502,
      "ĠIsrael": 4503,
      "ĠInstitute": 4504,
      "ĠFore": 4505,
      "Ġcream": 4506,
      "Ġdur": 4507,
      "Ġeconomy": 4508,
      "ĠTop": 4509,
      "Ġsociety": 4510,
      "Ġbill": 4511,
      "ĠLife": 4512,
      "Ġolder": 4513,
      "ĠSing": 4514,
      "Ġscore": 4515,
      "top": 4516,
      "Ġwaiting": 4517,
      "omb": 4518,
      "Ġbecomes": 4519,
      "Ġdecide": 4520,
      "Ġobv": 4521,
      "Ġpackage": 4522,
      "Ġcombination": 4523,
      "ĠCam": 4524,
      "ĠChinese": 4525,
      "ĠPower": 4526,
      "Ġlaunch": 4527,
      "Ġsustain": 4528,
      "Ġorigin": 4529,
      "ĠWhere": 4530,
      "apers": 4531,
      "ĠTwo": 4532,
      "Ġcoverage": 4533,
      "olate": 4534,
      "Ġmedium": 4535,
      "Ġbright": 4536,
      "ado": 4537,
      "Ġreality": 4538,
      "Ġfans": 4539,
      "Ġpassed": 4540,
      "Ġlux": 4541,
      "ocr": 4542,
      "ĠOpen": 4543,
      "Ġessay": 4544,
      "ellow": 4545,
      "Ġconnected": 4546,
      "Ġmilitary": 4547,
      "Ġanti": 4548,
      "Ġfamous": 4549,
      "ĠPR": 4550,
      "ĠHy": 4551,
      "Ġvision": 4552,
      "Ġdatab": 4553,
      "Ġcabin": 4554,
      "Ġexpensive": 4555,
      "Ġbeauty": 4556,
      "Ġformat": 4557,
      "Ġclassic": 4558,
      "Ġotherwise": 4559,
      "ĠChild": 4560,
      "ï¿": 4561,
      "ĠSl": 4562,
      "ãĥ": 4563,
      "Ġproud": 4564,
      "Ġoutdoor": 4565,
      "Ġ70": 4566,
      "ĠTues": 4567,
      "Ġunf": 4568,
      "Ġarrange": 4569,
      "Ġchanging": 4570,
      "ĠMount": 4571,
      "www": 4572,
      "ĠHel": 4573,
      "ails": 4574,
      "Ġprocesses": 4575,
      "Ġresidents": 4576,
      "Ġtempl": 4577,
      "Ġdrug": 4578,
      "Ġleader": 4579,
      "ĠMary": 4580,
      "Ġgall": 4581,
      "Ġmentioned": 4582,
      "Ġconfig": 4583,
      "Ġcharacters": 4584,
      "ads": 4585,
      "Ġmist": 4586,
      "abilities": 4587,
      "Ġmap": 4588,
      "ĠAfrica": 4589,
      "Ġran": 4590,
      "ï¿½": 4591,
      "Ġcasino": 4592,
      "ĠWord": 4593,
      "Ġcore": 4594,
      "Ġrare": 4595,
      "Ġsched": 4596,
      "Ġtaste": 4597,
      "Ġtruth": 4598,
      "Ġbeg": 4599,
      "Ġvalu": 4600,
      "ĠArch": 4601,
      "ĠLord": 4602,
      "Ġrat": 4603,
      "ĠRich": 4604,
      "Ġgrant": 4605,
      "Ġrob": 4606,
      "ech": 4607,
      "ented": 4608,
      "Ġflat": 4609,
      "ĠEngine": 4610,
      "unning": 4611,
      "ĠJames": 4612,
      "Ġhappens": 4613,
      "ĠRock": 4614,
      "ĠVe": 4615,
      "ĠChristian": 4616,
      "Ġhttp": 4617,
      "active": 4618,
      "Ġbecoming": 4619,
      "Ġhappened": 4620,
      "Ġmulti": 4621,
      "ĠDirector": 4622,
      "Ġdocuments": 4623,
      "IM": 4624,
      "ĠJer": 4625,
      "ĠRel": 4626,
      "asy": 4627,
      "Ġfold": 4628,
      "Ġimpl": 4629,
      "ĠIts": 4630,
      "ĠAnge": 4631,
      "cket": 4632,
      "ĠThursday": 4633,
      "Ġcalls": 4634,
      "ĠOnline": 4635,
      "Ġpsych": 4636,
      "UR": 4637,
      "Ġstick": 4638,
      "icies": 4639,
      "Ġ31": 4640,
      "rical": 4641,
      "Ġvideos": 4642,
      "Ġagreement": 4643,
      "Ġartist": 4644,
      "Ġdecisions": 4645,
      "Ġmaximum": 4646,
      "32": 4647,
      "ĠSun": 4648,
      "Ġprocessing": 4649,
      "ĠSum": 4650,
      "Ġapplied": 4651,
      "ternal": 4652,
      "Ġdisapp": 4653,
      "Ġcolour": 4654,
      "Ġtheme": 4655,
      "Ġestim": 4656,
      "Ġwrote": 4657,
      "Ġbrows": 4658,
      "aming": 4659,
      "Ġunits": 4660,
      "Ġcourses": 4661,
      "ota": 4662,
      "Ġstreet": 4663,
      "Ġsurg": 4664,
      "Ġsources": 4665,
      "Ġcontinued": 4666,
      "Ġencourage": 4667,
      "ga": 4668,
      "NA": 4669,
      "ĠUSA": 4670,
      "ception": 4671,
      "500": 4672,
      "Ġsnow": 4673,
      "Ġachie": 4674,
      "Ġthus": 4675,
      "Ġthousands": 4676,
      "Ġindependent": 4677,
      "Ġdescribed": 4678,
      "ĠEv": 4679,
      "ĠWho": 4680,
      "Ġfem": 4681,
      "ĠEducation": 4682,
      "Ġpleas": 4683,
      "ĠVol": 4684,
      "Ġveget": 4685,
      "ishes": 4686,
      "ĠWednes": 4687,
      "Ġegg": 4688,
      "Ġwhatever": 4689,
      "gal": 4690,
      "TS": 4691,
      "Ġdiagn": 4692,
      "Ġexcited": 4693,
      "Ġearth": 4694,
      "ĠTrump": 4695,
      "ĠMal": 4696,
      "Ġfees": 4697,
      "Ġmanager": 4698,
      "ores": 4699,
      "Ġfocused": 4700,
      "ĠSil": 4701,
      "Ġsets": 4702,
      "Ġfantastic": 4703,
      "icken": 4704,
      "Ġremains": 4705,
      "ĠOF": 4706,
      "Ġopened": 4707,
      "Ġprincip": 4708,
      "Ġmeant": 4709,
      "Ġoperation": 4710,
      "ask": 4711,
      "Ġselling": 4712,
      "ona": 4713,
      "ĠBoth": 4714,
      "Ġbul": 4715,
      "Ġshowing": 4716,
      "ĠFam": 4717,
      "Ġmagn": 4718,
      "Ġplastic": 4719,
      "Ġruns": 4720,
      "itar": 4721,
      "ĠWood": 4722,
      "Ġdoctor": 4723,
      "Ġvalid": 4724,
      "Ġrecipe": 4725,
      "Ġforeign": 4726,
      "Ġtrail": 4727,
      "Ġspect": 4728,
      "ĠBig": 4729,
      "Ġsounds": 4730,
      "Ġfederal": 4731,
      "Ġdecl": 4732,
      "gment": 4733,
      "craft": 4734,
      "OW": 4735,
      "Ġrecords": 4736,
      "Ġdinner": 4737,
      "Ġrecip": 4738,
      "Ġindic": 4739,
      "anta": 4740,
      "ĠTuesday": 4741,
      "Ġ?": 4742,
      "ship": 4743,
      "Ġmarkets": 4744,
      "Ġcaused": 4745,
      "DA": 4746,
      "Ch": 4747,
      "ĠTheir": 4748,
      "ĠProfess": 4749,
      "Ġbird": 4750,
      "Ġalternative": 4751,
      "ror": 4752,
      "Ġswitch": 4753,
      "Ġupgra": 4754,
      "Ġsea": 4755,
      "Ġdistance": 4756,
      "Ġfabric": 4757,
      "Ġwebsites": 4758,
      "ĠSol": 4759,
      "oma": 4760,
      "Ġadapt": 4761,
      "Ġmenu": 4762,
      "Ġrain": 4763,
      "ĠSoc": 4764,
      "Ġlock": 4765,
      "Ġdu": 4766,
      "Ġexciting": 4767,
      "Ġminute": 4768,
      "Ġaffordable": 4769,
      "IL": 4770,
      "Ġlose": 4771,
      "iration": 4772,
      "Ġnovel": 4773,
      "Ġpair": 4774,
      "ĠLo": 4775,
      "ĠPublic": 4776,
      "Ġbought": 4777,
      "Ġexpress": 4778,
      "vere": 4779,
      "Ġstone": 4780,
      "Ġabsolutely": 4781,
      "Ġcompar": 4782,
      "Ġdining": 4783,
      "Ġworry": 4784,
      "issions": 4785,
      "Ġteachers": 4786,
      "Ġcorner": 4787,
      "26": 4788,
      "Ġspending": 4789,
      "ĠScience": 4790,
      "Ġminimum": 4791,
      "usher": 4792,
      "Ġenjoyed": 4793,
      "Ġfacility": 4794,
      "Ġtoward": 4795,
      "Ġperformed": 4796,
      "ĠDownload": 4797,
      "Ġmajority": 4798,
      "ĠNews": 4799,
      "ooper": 4800,
      "Ġdump": 4801,
      "iliar": 4802,
      "Ġpresence": 4803,
      "Ġleadership": 4804,
      "ferences": 4805,
      "Ġdesk": 4806,
      "osis": 4807,
      "ĠPay": 4808,
      "ifts": 4809,
      "Ġproperly": 4810,
      "Ġassistance": 4811,
      "Ġchair": 4812,
      "Ġbrother": 4813,
      "Ġdim": 4814,
      "ĠBre": 4815,
      "arge": 4816,
      "ĠElect": 4817,
      "ructure": 4818,
      "Ġsav": 4819,
      "Ġposts": 4820,
      "Ġpresident": 4821,
      "Ġwww": 4822,
      "Ġ35": 4823,
      "ĠCamp": 4824,
      "oman": 4825,
      "Ġcatch": 4826,
      "ÑĤ": 4827,
      "Ġcompl": 4828,
      "Ġsouth": 4829,
      "Ġpanel": 4830,
      "Ġanimals": 4831,
      "ĠSocial": 4832,
      "Ġextensive": 4833,
      "ĠSam": 4834,
      "Ġpolicies": 4835,
      "ĠWednesday": 4836,
      "uled": 4837,
      "Ġrecommended": 4838,
      "Ġinstalled": 4839,
      "Ġclaims": 4840,
      "ĠMichael": 4841,
      "Ġsch": 4842,
      "going": 4843,
      "iled": 4844,
      "Ġdaughter": 4845,
      "Ġsem": 4846,
      "ĠCommission": 4847,
      "Ġawesome": 4848,
      "Ġcontinues": 4849,
      "Ġbrings": 4850,
      "Ġcontem": 4851,
      "Ġwindows": 4852,
      "ÑĢ": 4853,
      "ette": 4854,
      "Ġcomprehens": 4855,
      "Ġcorporate": 4856,
      "ifying": 4857,
      "Ġmanaged": 4858,
      "Ġknows": 4859,
      "Ġdetailed": 4860,
      "Ġconcent": 4861,
      "tion": 4862,
      "Ġrelationships": 4863,
      "Ġartists": 4864,
      "inct": 4865,
      "ĠID": 4866,
      "ĠBack": 4867,
      "ĠWork": 4868,
      "PA": 4869,
      "Ñģ": 4870,
      "icians": 4871,
      "Ġdistrict": 4872,
      "Ġtransform": 4873,
      "uce": 4874,
      "Ġteacher": 4875,
      "Ġingredients": 4876,
      "ĠBefore": 4877,
      "ĠLight": 4878,
      "ĠMark": 4879,
      "ĠIsland": 4880,
      "Ġeth": 4881,
      "Ġscale": 4882,
      "28": 4883,
      "point": 4884,
      "Ġconcerns": 4885,
      "Ġtow": 4886,
      "Ġdied": 4887,
      "estic": 4888,
      "Ġsuitable": 4889,
      "Ġlocations": 4890,
      "ĠHum": 4891,
      "fficient": 4892,
      "Ġton": 4893,
      "Ġfol": 4894,
      "Ġsugar": 4895,
      "ĠPet": 4896,
      "ĠGlo": 4897,
      "Ġinjury": 4898,
      "Ġreference": 4899,
      "Ġguess": 4900,
      "arrant": 4901,
      "ĠStar": 4902,
      "Ġdebt": 4903,
      "Ġcomponents": 4904,
      "Ġ2007": 4905,
      "iers": 4906,
      "ĠCap": 4907,
      "Ġhospital": 4908,
      "Ġallowing": 4909,
      "Ġwouldn": 4910,
      "ĠHist": 4911,
      "Ġmode": 4912,
      "21": 4913,
      "ĠRepublic": 4914,
      "Ġleaves": 4915,
      "leg": 4916,
      "Ġmort": 4917,
      "ĠMill": 4918,
      "Ġstarts": 4919,
      "Ġwalking": 4920,
      "Ġtopic": 4921,
      "aven": 4922,
      "yer": 4923,
      "IV": 4924,
      "Ġautomatically": 4925,
      "Ġride": 4926,
      "Ġenvironmental": 4927,
      "ĠData": 4928,
      "Ġtrees": 4929,
      "Ġupdated": 4930,
      "ĠBuild": 4931,
      "rete": 4932,
      "essions": 4933,
      "vention": 4934,
      "ĠEngland": 4935,
      "ĠSpecial": 4936,
      "Ġstrategies": 4937,
      "Ġjoint": 4938,
      "Ġthoughts": 4939,
      "Ġclearly": 4940,
      "ĠAM": 4941,
      "ĠStr": 4942,
      "Ġclosed": 4943,
      "Ġlovely": 4944,
      "Ġhonest": 4945,
      "osition": 4946,
      "Ġpal": 4947,
      "aj": 4948,
      "ĠWall": 4949,
      "Ġregistered": 4950,
      "ĠJour": 4951,
      "ĠCommit": 4952,
      "ĠTO": 4953,
      "ĠDevelopment": 4954,
      "Ġleaving": 4955,
      "obile": 4956,
      "Ġtypically": 4957,
      "27": 4958,
      "ĠNext": 4959,
      "Ġpreviously": 4960,
      "men": 4961,
      "ĠKeep": 4962,
      "ĠDri": 4963,
      "Ġstores": 4964,
      "outhern": 4965,
      "ĠBen": 4966,
      "ĠDet": 4967,
      "Ġprovider": 4968,
      "Ġfilled": 4969,
      "Ġvehicles": 4970,
      "CC": 4971,
      "Ġdepartment": 4972,
      "Ġeating": 4973,
      "Ġfuel": 4974,
      "Ġexpertise": 4975,
      "Ġsenior": 4976,
      "Ġapproximately": 4977,
      "Ġdram": 4978,
      "Ġagency": 4979,
      "Ġwilling": 4980,
      "log": 4981,
      "Ġvan": 4982,
      "den": 4983,
      "reek": 4984,
      "ocolate": 4985,
      "Ġquant": 4986,
      "ĠTime": 4987,
      "ĠEst": 4988,
      "Ġfunding": 4989,
      "Ġedge": 4990,
      "ĠAmazon": 4991,
      "Ġcitiz": 4992,
      "Ġactions": 4993,
      "Ġder": 4994,
      "Ġcities": 4995,
      "ĠBet": 4996,
      "Ġcategory": 4997,
      "bl": 4998,
      "Ġrestrict": 4999,
      "ĠMain": 5000,
      "pid": 5001,
      "bed": 5002,
      "rian": 5003,
      "Ġshowed": 5004,
      "ĠBill": 5005,
      "ĠTur": 5006,
      "bour": 5007,
      "Ġinternal": 5008,
      "33": 5009,
      "ampions": 5010,
      "Ġpredict": 5011,
      "Ġbusy": 5012,
      "Ġserving": 5013,
      "Ġ@": 5014,
      "ĠAS": 5015,
      "ĠNote": 5016,
      "ĠBlue": 5017,
      "Ġnorth": 5018,
      "Ġgeneration": 5019,
      "Ġcart": 5020,
      "resp": 5021,
      "Ġseat": 5022,
      "Ġcontroll": 5023,
      "amin": 5024,
      "Ġdial": 5025,
      "Ġpractical": 5026,
      "Ġship": 5027,
      "Ġspecies": 5028,
      "uty": 5029,
      "Ġresponsibility": 5030,
      "igence": 5031,
      "44": 5032,
      "Ġslightly": 5033,
      "uries": 5034,
      "ĠRob": 5035,
      "Ġmanner": 5036,
      "Ġbattery": 5037,
      "Ġelement": 5038,
      "Ġsquare": 5039,
      "hone": 5040,
      "Ġcombined": 5041,
      "Ġcentre": 5042,
      "ĠAND": 5043,
      "ĠMot": 5044,
      "Ġgirl": 5045,
      "Ġbon": 5046,
      "Ġenhance": 5047,
      "ĠPhil": 5048,
      "Ġju": 5049,
      "Ġaspects": 5050,
      "mail": 5051,
      "ĠInformation": 5052,
      "hab": 5053,
      "night": 5054,
      "Ġbehavior": 5055,
      "Ġì": 5056,
      "Ġdepending": 5057,
      "umin": 5058,
      "ĠFoundation": 5059,
      "gn": 5060,
      "Ġspl": 5061,
      "Ġlaun": 5062,
      "Ġexchange": 5063,
      "ĠFire": 5064,
      "Ġneighbor": 5065,
      "Ġimportance": 5066,
      "Ġraised": 5067,
      "Ġsecret": 5068,
      "ĠThom": 5069,
      "ĠJew": 5070,
      "Ġshipping": 5071,
      "Ġtechnologies": 5072,
      "fol": 5073,
      "ĠCentral": 5074,
      "Ġerror": 5075,
      "Ġaccompl": 5076,
      "ander": 5077,
      "ĠStart": 5078,
      "ÂŃ": 5079,
      "Ġdiscussion": 5080,
      "Ġrid": 5081,
      "Ġappears": 5082,
      "Ġcontext": 5083,
      "rd": 5084,
      "ĠTem": 5085,
      "ĠMil": 5086,
      "ĠCD": 5087,
      "Ġputting": 5088,
      "ĠThrough": 5089,
      "mp": 5090,
      "ĠCommunity": 5091,
      "ĠPM": 5092,
      "Ġthick": 5093,
      "ĠGrand": 5094,
      "life": 5095,
      "Ġdepos": 5096,
      "tered": 5097,
      "hi": 5098,
      "Ġseek": 5099,
      "ĠMex": 5100,
      "Ġlabor": 5101,
      "Ġunc": 5102,
      "Ġfavour": 5103,
      "ĠMer": 5104,
      "poses": 5105,
      "ĠMad": 5106,
      "ipl": 5107,
      "Ġcivil": 5108,
      "ĠMicrosoft": 5109,
      "Ġprepare": 5110,
      "Ġfootball": 5111,
      "ront": 5112,
      "Ġcris": 5113,
      "Ð½": 5114,
      "olic": 5115,
      "oe": 5116,
      "osen": 5117,
      "Ġvote": 5118,
      "Ġsurvey": 5119,
      "Ġinfo": 5120,
      "Ġunless": 5121,
      "Ġelim": 5122,
      "Ġconsid": 5123,
      "Ġnegative": 5124,
      "unction": 5125,
      "antic": 5126,
      "ĠMusic": 5127,
      "omet": 5128,
      "ĠBeach": 5129,
      "Ġdynam": 5130,
      "fin": 5131,
      "Ġhar": 5132,
      "Ġphotograph": 5133,
      "Ġreliable": 5134,
      "itness": 5135,
      "Ġhyd": 5136,
      "ivered": 5137,
      "ĠÃ": 5138,
      "Ġargu": 5139,
      "Ġconduct": 5140,
      "ĠLou": 5141,
      "Ġcrow": 5142,
      "Ġleads": 5143,
      "Ġindustrial": 5144,
      "eed": 5145,
      "Ġfeedback": 5146,
      "Ġspecifically": 5147,
      "Ġdisp": 5148,
      "nel": 5149,
      "Ġlaws": 5150,
      "Ġ196": 5151,
      "ĠRoy": 5152,
      "Ġcircum": 5153,
      "Ġinterior": 5154,
      "RA": 5155,
      "Ġguys": 5156,
      "Ġlisten": 5157,
      "Ġmostly": 5158,
      "IA": 5159,
      "azine": 5160,
      "Ġdrink": 5161,
      "Ġinnovative": 5162,
      "ĠMaster": 5163,
      "Ġmental": 5164,
      "Ġjoined": 5165,
      "Ġchemical": 5166,
      "ĠGovernment": 5167,
      "alls": 5168,
      "Ġjournal": 5169,
      "Ġtrading": 5170,
      "oration": 5171,
      "Ġourselves": 5172,
      "Ġacademic": 5173,
      "ĠExp": 5174,
      "illa": 5175,
      "Ġwatching": 5176,
      "Ġprot": 5177,
      "ĠContact": 5178,
      "Ġscene": 5179,
      "Ġquot": 5180,
      "Ġparking": 5181,
      "mes": 5182,
      "29": 5183,
      "mal": 5184,
      "ya": 5185,
      "Ġvolume": 5186,
      "prise": 5187,
      "rs": 5188,
      "Ġregister": 5189,
      "Ġfruit": 5190,
      "ĠIde": 5191,
      "Ġchoices": 5192,
      "LC": 5193,
      "Ġarticles": 5194,
      "ĠCas": 5195,
      "Ġfunctions": 5196,
      "Ġdelicious": 5197,
      "Ġended": 5198,
      "ĠFood": 5199,
      "how": 5200,
      "Ġsport": 5201,
      "ĠEnter": 5202,
      "Ġdoors": 5203,
      "oles": 5204,
      "Ġjump": 5205,
      "rab": 5206,
      "outs": 5207,
      "ĠIP": 5208,
      "Ġ=": 5209,
      "water": 5210,
      "Ġign": 5211,
      "Ġdeals": 5212,
      "Ġswim": 5213,
      "Ġlunch": 5214,
      "rics": 5215,
      "Ġpurposes": 5216,
      "ĠAlex": 5217,
      "no": 5218,
      "known": 5219,
      "paper": 5220,
      "ĠOnly": 5221,
      "Ġteach": 5222,
      "Ġaccident": 5223,
      "Ġanc": 5224,
      "ĠQue": 5225,
      "ĠCommittee": 5226,
      "orthern": 5227,
      "Ġgoods": 5228,
      "rier": 5229,
      "aser": 5230,
      "Ġpromote": 5231,
      "cean": 5232,
      "Ġappeal": 5233,
      "ĠExper": 5234,
      "Ġ500": 5235,
      "Ġdatabase": 5236,
      "Ġnotes": 5237,
      "Ġclimate": 5238,
      "ĠTom": 5239,
      "ï¼": 5240,
      "ĠTor": 5241,
      "Ġbrands": 5242,
      "Ġinstance": 5243,
      "Ġmotiv": 5244,
      "Ġrub": 5245,
      "ĠConst": 5246,
      "Ġpoly": 5247,
      "ĠSet": 5248,
      "Ġproceed": 5249,
      "ĠVir": 5250,
      "Ġcommitted": 5251,
      "ĠNor": 5252,
      "ĠMiss": 5253,
      "BA": 5254,
      "Ġprofile": 5255,
      "Ġarm": 5256,
      "Ġseconds": 5257,
      "Ġguarantee": 5258,
      "Ġanywhere": 5259,
      "ups": 5260,
      "Ġmeasures": 5261,
      "pan": 5262,
      "ĠChic": 5263,
      "ĠReal": 5264,
      "inding": 5265,
      "cles": 5266,
      "Ġ45": 5267,
      "rim": 5268,
      "ĠMatt": 5269,
      "ĠAddition": 5270,
      "ĠDoes": 5271,
      "Ġaudio": 5272,
      "ĠValley": 5273,
      "Ġtickets": 5274,
      "ĠProject": 5275,
      "Ġsuit": 5276,
      "Ġcultural": 5277,
      "ograp": 5278,
      "Ġaccounts": 5279,
      "Ġparticipants": 5280,
      "equ": 5281,
      "Ġtast": 5282,
      "Ġproviders": 5283,
      "Ġattor": 5284,
      "Ġsupported": 5285,
      "ĠHill": 5286,
      "Ġcomprehensive": 5287,
      "Ġvisiting": 5288,
      "Ġtea": 5289,
      "Ġgirls": 5290,
      "Ġkid": 5291,
      "eared": 5292,
      "Ġdelivered": 5293,
      "ĠNOT": 5294,
      "lor": 5295,
      "Ġfamiliar": 5296,
      "Ġdie": 5297,
      "ĠThose": 5298,
      "ae": 5299,
      "ĠStand": 5300,
      "Ġisland": 5301,
      "Ġopinion": 5302,
      "cohol": 5303,
      "CA": 5304,
      "Ġsongs": 5305,
      "Ġcompetitive": 5306,
      "Ġradio": 5307,
      "oor": 5308,
      "itz": 5309,
      "rastructure": 5310,
      "Ġsympt": 5311,
      "ĠSecurity": 5312,
      "ĠPress": 5313,
      "Ġconfidence": 5314,
      "Ġlibrary": 5315,
      "ki": 5316,
      "Ġshower": 5317,
      "Ġadults": 5318,
      "Ġemp": 5319,
      "Ġnor": 5320,
      "ĠSto": 5321,
      "hent": 5322,
      "Ġfaster": 5323,
      "Ġboy": 5324,
      "Ġcoast": 5325,
      "inations": 5326,
      "win": 5327,
      "ĠColor": 5328,
      "Ġreached": 5329,
      "Ġinfluence": 5330,
      "Ġtotally": 5331,
      "Ġbrief": 5332,
      "Ġrule": 5333,
      "ilit": 5334,
      "Ġpremium": 5335,
      "Ġthrow": 5336,
      "BS": 5337,
      "ola": 5338,
      "othes": 5339,
      "ĠAcadem": 5340,
      "DF": 5341,
      "ĠTwitter": 5342,
      "orough": 5343,
      "Ġinput": 5344,
      "Ġwinning": 5345,
      "ĠSociety": 5346,
      "td": 5347,
      "ĠSen": 5348,
      "Ġplug": 5349,
      "Ġflight": 5350,
      "Ġsequ": 5351,
      "Ġyouth": 5352,
      "akers": 5353,
      "ĠUsing": 5354,
      "Ġdespite": 5355,
      "ĠDistrict": 5356,
      "ĠReview": 5357,
      "Ġoccup": 5358,
      "cious": 5359,
      "Ġemployee": 5360,
      "Ġinspired": 5361,
      "Ġdecre": 5362,
      "Ġresource": 5363,
      "Ġhousing": 5364,
      "ĠUN": 5365,
      "Ġlegis": 5366,
      "Ġmissing": 5367,
      "CH": 5368,
      "ipp": 5369,
      "Ġemergency": 5370,
      "isco": 5371,
      "Ġven": 5372,
      "Ġgather": 5373,
      "Ġremoved": 5374,
      "ini": 5375,
      "Ġmeal": 5376,
      "Ġrot": 5377,
      "Wh": 5378,
      "Ġflowers": 5379,
      "Ġeventually": 5380,
      "ĠStep": 5381,
      "never": 5382,
      "IR": 5383,
      "Ġapproved": 5384,
      "Ġlights": 5385,
      "Ġvaluable": 5386,
      "Ġenable": 5387,
      "apos": 5388,
      "onds": 5389,
      "Ġreput": 5390,
      "Ġeducational": 5391,
      "Ġpoll": 5392,
      "Ġgun": 5393,
      "inating": 5394,
      "Ġasking": 5395,
      "ĠFollow": 5396,
      "ĠTeam": 5397,
      "Ġ2000": 5398,
      "ĠBer": 5399,
      "Ġadvertising": 5400,
      "Ġreturned": 5401,
      "Ġshut": 5402,
      "ano": 5403,
      "ĠCO": 5404,
      "Ġchart": 5405,
      "Ġrise": 5406,
      "55": 5407,
      "Ġoutput": 5408,
      "ĠAndroid": 5409,
      "Ġtrial": 5410,
      "Ġap": 5411,
      "36": 5412,
      "Ġpossibly": 5413,
      "liance": 5414,
      "Ġtun": 5415,
      "ĠDiv": 5416,
      "iner": 5417,
      "Ġwarrant": 5418,
      "net": 5419,
      "Ġconsumers": 5420,
      "ef": 5421,
      "Ġbeat": 5422,
      "yal": 5423,
      "Ġfixed": 5424,
      "idden": 5425,
      "ĠCard": 5426,
      "Ġcovers": 5427,
      "Ġbrown": 5428,
      "Ġshap": 5429,
      "Ġsam": 5430,
      "Ġsettings": 5431,
      "Ġintroduced": 5432,
      "noon": 5433,
      "Ġbreakfast": 5434,
      "olars": 5435,
      "Ġcoord": 5436,
      "ĠAtt": 5437,
      "Ġfactor": 5438,
      "Ġobl": 5439,
      "Ġconsumer": 5440,
      "Ġbuildings": 5441,
      "cap": 5442,
      "ifications": 5443,
      "ĠFrance": 5444,
      "ĠPan": 5445,
      "ĠMel": 5446,
      "**": 5447,
      "Ġsimpl": 5448,
      "ĠOrgan": 5449,
      "Ġupdates": 5450,
      "ĠLong": 5451,
      "Ġhearing": 5452,
      "Ġrestaurants": 5453,
      "Ġmonthly": 5454,
      "ĠGerman": 5455,
      "atin": 5456,
      "gging": 5457,
      "Ġeffectively": 5458,
      "Ġimproved": 5459,
      "ĠTechnology": 5460,
      "Ġvary": 5461,
      "ĠProv": 5462,
      "Ġreaders": 5463,
      "Ġrental": 5464,
      "Ġinterests": 5465,
      "Ġtherapy": 5466,
      "Ġspo": 5467,
      "ĠDig": 5468,
      "ario": 5469,
      "Ġliqu": 5470,
      "Ġiron": 5471,
      "Ġresolution": 5472,
      "ĠLim": 5473,
      "Ġ2006": 5474,
      "met": 5475,
      "roy": 5476,
      "Ġsigned": 5477,
      "friend": 5478,
      "with": 5479,
      "Ġexplain": 5480,
      "Ġment": 5481,
      "ĠCentre": 5482,
      "Ġexamples": 5483,
      "een": 5484,
      "SA": 5485,
      "Ġnav": 5486,
      "Ġring": 5487,
      "Ġconstruct": 5488,
      "Ġfeels": 5489,
      "Ġbound": 5490,
      "Ġrapid": 5491,
      "Ġboat": 5492,
      "Ġremote": 5493,
      "Ġsymb": 5494,
      "Ġpump": 5495,
      "Ġanimal": 5496,
      "ĠRad": 5497,
      "ĠMass": 5498,
      "ĠHD": 5499,
      "Ġtail": 5500,
      "Ġstret": 5501,
      "Ġepis": 5502,
      "eless": 5503,
      "Ġthr": 5504,
      "mosp": 5505,
      "Ġbutter": 5506,
      "cont": 5507,
      "reens": 5508,
      "ENT": 5509,
      "ĠGermany": 5510,
      "aration": 5511,
      "ĠJournal": 5512,
      "arp": 5513,
      "Ġraise": 5514,
      "95": 5515,
      "aturing": 5516,
      "Ġamb": 5517,
      "ricult": 5518,
      "umber": 5519,
      "ĠPerson": 5520,
      "Ġapps": 5521,
      "Ġlayer": 5522,
      "Ġpaying": 5523,
      "ĠList": 5524,
      "ucle": 5525,
      "list": 5526,
      "Ġsample": 5527,
      "Ġremov": 5528,
      "Ġfields": 5529,
      "ĠShow": 5530,
      "ums": 5531,
      "Ġweak": 5532,
      "Ġappreciate": 5533,
      "ĠLead": 5534,
      "phas": 5535,
      "add": 5536,
      "ensions": 5537,
      "ĠCarol": 5538,
      "ĠAT": 5539,
      "pected": 5540,
      "Ġsides": 5541,
      "Ġintended": 5542,
      "ĠHol": 5543,
      "Ġfoods": 5544,
      "Ġcircumst": 5545,
      "Ġagent": 5546,
      "Ġdesire": 5547,
      "Ġdance": 5548,
      "Ġlighting": 5549,
      "ĠOld": 5550,
      "lla": 5551,
      "Ġoccasion": 5552,
      "ĠIndust": 5553,
      "Ġintell": 5554,
      "estyle": 5555,
      "Ġreduced": 5556,
      "lets": 5557,
      "ĠHead": 5558,
      "Ġseemed": 5559,
      "Ġtests": 5560,
      "Ġkinds": 5561,
      "Ġdogs": 5562,
      "Ġcalling": 5563,
      "Ġelectronic": 5564,
      "Ġresearc": 5565,
      "Ġannounce": 5566,
      "ĠUnion": 5567,
      "rome": 5568,
      "Ġpurchased": 5569,
      "spe": 5570,
      "Ġglad": 5571,
      "rain": 5572,
      "Ġcommitment": 5573,
      "Ġlicense": 5574,
      "Ġer": 5575,
      "ĠInte": 5576,
      "34": 5577,
      "Ġdoubt": 5578,
      "ician": 5579,
      "ĠMuseum": 5580,
      "ĠTown": 5581,
      "Ġconvenient": 5582,
      "Ġregularly": 5583,
      "ĠOR": 5584,
      "Ġmanufacturing": 5585,
      "Ġbringing": 5586,
      "ĠPlus": 5587,
      "Ġsigns": 5588,
      "Ġrealize": 5589,
      "ĠFurther": 5590,
      "Ġsitting": 5591,
      "Ġpin": 5592,
      "Ġdomain": 5593,
      "Ġsupplies": 5594,
      "oga": 5595,
      "Ġdiam": 5596,
      "olly": 5597,
      "Ġauto": 5598,
      "PR": 5599,
      "ste": 5600,
      "iance": 5601,
      "urban": 5602,
      "Ġdish": 5603,
      "which": 5604,
      "Ġefficiency": 5605,
      "Ġgrade": 5606,
      "jo": 5607,
      "prene": 5608,
      "ius": 5609,
      "Ġdiscovered": 5610,
      "Ġagg": 5611,
      "ĠYOU": 5612,
      "Ġclinical": 5613,
      "Ġquiet": 5614,
      "Ġadministration": 5615,
      "ĠBi": 5616,
      "Ġsurgery": 5617,
      "Ġprocedure": 5618,
      "Ġcooking": 5619,
      "eper": 5620,
      "iest": 5621,
      "Ġtransl": 5622,
      "Ġsalt": 5623,
      "Ġsurrounding": 5624,
      "Ġmonit": 5625,
      "ĠChicago": 5626,
      "ownt": 5627,
      "SS": 5628,
      "Ġinstructions": 5629,
      "Ġseeking": 5630,
      "ĠBur": 5631,
      "odies": 5632,
      "Ġappearance": 5633,
      "Ġcomplic": 5634,
      "38": 5635,
      "ĠFamily": 5636,
      "while": 5637,
      "Ġboost": 5638,
      "ĠNY": 5639,
      "Ġcutting": 5640,
      "Ġengineering": 5641,
      "Ġuniversity": 5642,
      "Ġdrivers": 5643,
      "ulty": 5644,
      "but": 5645,
      "ĠMaybe": 5646,
      "igr": 5647,
      "ĠEarth": 5648,
      "Ġillustr": 5649,
      "Ġholding": 5650,
      "ĠHi": 5651,
      "Ġsizes": 5652,
      "Ġlaunched": 5653,
      "OD": 5654,
      "Ġhundreds": 5655,
      "Ġperfectly": 5656,
      "Ġaid": 5657,
      "berg": 5658,
      "Ġtight": 5659,
      "Ġsignificantly": 5660,
      "Ġbike": 5661,
      "reprene": 5662,
      "Ġaccurate": 5663,
      "ĠInstead": 5664,
      "ĠCy": 5665,
      "Ġconflic": 5666,
      "ĠWal": 5667,
      "Ġminor": 5668,
      "Ġsupporting": 5669,
      "rition": 5670,
      "riage": 5671,
      "ĠMont": 5672,
      "Ġassets": 5673,
      "ĠDi": 5674,
      "ulous": 5675,
      "Ġguest": 5676,
      "ĠInvest": 5677,
      "Ġforg": 5678,
      "Ġrecovery": 5679,
      "Ġgreatest": 5680,
      "Ġsaving": 5681,
      "ĠGeorge": 5682,
      "gage": 5683,
      "isher": 5684,
      "Ġdistribution": 5685,
      "Ġdetermined": 5686,
      "Ġtopics": 5687,
      "aught": 5688,
      "Ġvs": 5689,
      "Ġmanual": 5690,
      "Ġchosen": 5691,
      "Ġappointment": 5692,
      "gl": 5693,
      "iveness": 5694,
      "oosing": 5695,
      "ĠWestern": 5696,
      "ĠFil": 5697,
      "Ġrevenue": 5698,
      "athe": 5699,
      "UT": 5700,
      "ita": 5701,
      "Ġadvis": 5702,
      "ĠDa": 5703,
      "Ġwalls": 5704,
      "anish": 5705,
      "Ġcharges": 5706,
      "zen": 5707,
      "Ġpresentation": 5708,
      "Ġconfirm": 5709,
      "cher": 5710,
      "hetic": 5711,
      "Ġcommand": 5712,
      "Ġcauses": 5713,
      "ĠScott": 5714,
      "Ġowned": 5715,
      "ĠCanad": 5716,
      "Ġknowing": 5717,
      "Ġafternoon": 5718,
      "Ġcreation": 5719,
      "ĠCert": 5720,
      "Ġfulf": 5721,
      "iat": 5722,
      "Ġwhom": 5723,
      "ĠHotel": 5724,
      "ĠiPhone": 5725,
      "Ġmine": 5726,
      "Ġfly": 5727,
      "luding": 5728,
      "ibilities": 5729,
      "ĠWel": 5730,
      "Ġincredible": 5731,
      "Ġparticipate": 5732,
      "ĠMedical": 5733,
      "ĠAtl": 5734,
      "ĠParty": 5735,
      "ĠRE": 5736,
      "Ġec": 5737,
      "ĠBas": 5738,
      "ĠFranc": 5739,
      "ĠSmith": 5740,
      "Ġwheel": 5741,
      "Ġhouses": 5742,
      "39": 5743,
      "Ġfailure": 5744,
      "etime": 5745,
      "ĠView": 5746,
      "Ġsurf": 5747,
      "Ġcheese": 5748,
      "âĦ": 5749,
      "Ġportion": 5750,
      "Ġfreed": 5751,
      "kin": 5752,
      "Ġphil": 5753,
      "ĠTest": 5754,
      "Ġroute": 5755,
      "Ġreplacement": 5756,
      "Ø§": 5757,
      "37": 5758,
      "Ġcarried": 5759,
      "alian": 5760,
      "ĠTour": 5761,
      "agra": 5762,
      "ĠTri": 5763,
      "Ġperspective": 5764,
      "rag": 5765,
      "edy": 5766,
      "Ġnurs": 5767,
      "ĠTre": 5768,
      "Ġlived": 5769,
      "otic": 5770,
      "Ġtasks": 5771,
      "ĠTherefore": 5772,
      "OC": 5773,
      "Ġneck": 5774,
      "Ġatmosp": 5775,
      "Ġchain": 5776,
      "Ġben": 5777,
      "Ð¾Ð": 5778,
      "Ĥ¬": 5779,
      "Ġforest": 5780,
      "Ġhire": 5781,
      "Ġconsidering": 5782,
      "Ġinfrastructure": 5783,
      "bre": 5784,
      "Ġplate": 5785,
      "ĠCA": 5786,
      "IF": 5787,
      "orter": 5788,
      "ĠOffic": 5789,
      "Ġchocolate": 5790,
      "48": 5791,
      "Ġprotein": 5792,
      "Ġregistration": 5793,
      "âĢĻ.": 5794,
      "Ġconsequ": 5795,
      "Ġcontra": 5796,
      "Ġ2005": 5797,
      "what": 5798,
      "ĠSometimes": 5799,
      "ĠFund": 5800,
      "ĠSecond": 5801,
      "Ġdelight": 5802,
      "Ġneighborhood": 5803,
      "aste": 5804,
      "ĠCongress": 5805,
      "Ġcop": 5806,
      "Ġtables": 5807,
      "road": 5808,
      "alog": 5809,
      "ĠKore": 5810,
      "Ġsymptoms": 5811,
      "Ġtruck": 5812,
      "nect": 5813,
      "Ġvir": 5814,
      "Ġteeth": 5815,
      "Ġchannel": 5816,
      "Ġjoy": 5817,
      "ĠMach": 5818,
      "Ġburn": 5819,
      "icial": 5820,
      "Ġmeat": 5821,
      "ĠLu": 5822,
      "Ġdating": 5823,
      "Ġconversation": 5824,
      "imately": 5825,
      "gged": 5826,
      "Ġadministr": 5827,
      "amic": 5828,
      "Ġsolar": 5829,
      "esterday": 5830,
      "Ġsessions": 5831,
      "ĠAward": 5832,
      "Ġmilk": 5833,
      "ĠAdv": 5834,
      "burg": 5835,
      "Ġremaining": 5836,
      "Ġdecades": 5837,
      "loc": 5838,
      "Ġissued": 5839,
      "xy": 5840,
      "ĠSand": 5841,
      "Ġscript": 5842,
      "Ġ32": 5843,
      "Ġinteg": 5844,
      "ĠPeter": 5845,
      "van": 5846,
      "Ġguy": 5847,
      "Ġassum": 5848,
      "ĠGal": 5849,
      "ĠHaving": 5850,
      "ixture": 5851,
      "Ġtrend": 5852,
      "Ġorders": 5853,
      "eries": 5854,
      "ĠLtd": 5855,
      "Ġbattle": 5856,
      "Ġyes": 5857,
      "Ġtrained": 5858,
      "ĠFinally": 5859,
      "Ġassemb": 5860,
      "abled": 5861,
      "ria": 5862,
      "Ġbelong": 5863,
      "ĠGlobal": 5864,
      "Ġath": 5865,
      "ĠSoft": 5866,
      "ait": 5867,
      "Ġchicken": 5868,
      "âĦ¢": 5869,
      "Ġfle": 5870,
      "ĠVict": 5871,
      "Ġtough": 5872,
      "Ġunivers": 5873,
      "Ġsole": 5874,
      "ĠAfrican": 5875,
      "Ġcontemporary": 5876,
      "elines": 5877,
      "Ġshares": 5878,
      "Ġcoach": 5879,
      "ĠDou": 5880,
      "Ġanswers": 5881,
      "Ġproposed": 5882,
      "Ġbigger": 5883,
      "Ġleather": 5884,
      "Ġpure": 5885,
      "Ġmut": 5886,
      "Ġprocedures": 5887,
      "Ġlicens": 5888,
      "Ġperman": 5889,
      "Ġorganic": 5890,
      "Ġpainting": 5891,
      "Ġreb": 5892,
      "Ġfo": 5893,
      "Ġexcess": 5894,
      "Ġsheet": 5895,
      "appy": 5896,
      "ĠTim": 5897,
      "ĠAud": 5898,
      "Ġtreated": 5899,
      "nergy": 5900,
      "Ġcompr": 5901,
      "ĠBrown": 5902,
      "Ġidentified": 5903,
      "Ġpu": 5904,
      "Ġbroken": 5905,
      "Ġvit": 5906,
      "ĠHam": 5907,
      "Ġlabel": 5908,
      "Ġgear": 5909,
      "uration": 5910,
      "Ġpatterns": 5911,
      "Ġexternal": 5912,
      "Ġpayments": 5913,
      "Ġplays": 5914,
      "Ġupload": 5915,
      "ially": 5916,
      "ev": 5917,
      "Ġemphas": 5918,
      "ĠNE": 5919,
      "Ġdollars": 5920,
      "Ġarrived": 5921,
      "asp": 5922,
      "Ġreasonable": 5923,
      "ushed": 5924,
      "Ġmal": 5925,
      "ĠWhich": 5926,
      "ĠHosp": 5927,
      "Ġaffected": 5928,
      "ĠVery": 5929,
      "Ġmouth": 5930,
      "Ġrenew": 5931,
      "Ġcarefully": 5932,
      "Ġmatters": 5933,
      "ĠStudents": 5934,
      "ĠOper": 5935,
      "ĠLearn": 5936,
      "uality": 5937,
      "Ġmail": 5938,
      "Ġreceiving": 5939,
      "ĠLab": 5940,
      "weet": 5941,
      "Ġsuccessfully": 5942,
      "This": 5943,
      "Ġhousehold": 5944,
      "ĠOk": 5945,
      "Ġbirthday": 5946,
      "ĠVirgin": 5947,
      "Ġstanding": 5948,
      "ĠDen": 5949,
      "hus": 5950,
      "Ġbread": 5951,
      "ĠJapanese": 5952,
      "ĠFull": 5953,
      "Ġwid": 5954,
      "poration": 5955,
      "ĠON": 5956,
      "Ġspaces": 5957,
      "Ġmachines": 5958,
      "ĠBud": 5959,
      "ĠArts": 5960,
      "anged": 5961,
      "Ġofficials": 5962,
      "ĠHope": 5963,
      "Ġcrim": 5964,
      ");": 5965,
      "orry": 5966,
      "Ġwriter": 5967,
      "erves": 5968,
      "dered": 5969,
      "ĠEqu": 5970,
      "hand": 5971,
      "Ġicon": 5972,
      "ket": 5973,
      "Ġaccepted": 5974,
      "Ġinvestors": 5975,
      "TA": 5976,
      "ĠDid": 5977,
      "ĠProte": 5978,
      "Ġbegins": 5979,
      "Ġluxury": 5980,
      "Ġcitizens": 5981,
      "working": 5982,
      "Ġsauce": 5983,
      "Ġholds": 5984,
      "Ġshoes": 5985,
      "oses": 5986,
      "Ġassessment": 5987,
      "Ġhistorical": 5988,
      "You": 5989,
      "Ġstre": 5990,
      "47": 5991,
      "uts": 5992,
      "Ġworldwide": 5993,
      "Ġhun": 5994,
      "Ġ300": 5995,
      "Ġimprovement": 5996,
      "ĠExt": 5997,
      "Ġhardware": 5998,
      "ĠCat": 5999,
      "Ġped": 6000,
      "Ġconstantly": 6001,
      "Ġvillage": 6002,
      "ĠMS": 6003,
      "Ġtut": 6004,
      "49": 6005,
      "da": 6006,
      "Ġsupports": 6007,
      "ĠMedia": 6008,
      "Ġresol": 6009,
      "Ġuns": 6010,
      "hors": 6011,
      "Ġsituations": 6012,
      "oti": 6013,
      "fa": 6014,
      "Ġalcohol": 6015,
      "iors": 6016,
      "ĠEU": 6017,
      "pes": 6018,
      "Ġscientific": 6019,
      "Ġcrowd": 6020,
      "inder": 6021,
      "Ġmessages": 6022,
      "ĠSign": 6023,
      "aked": 6024,
      "Ġcake": 6025,
      "pass": 6026,
      "Ġrelatively": 6027,
      "ĠAsia": 6028,
      "irms": 6029,
      "Ġregul": 6030,
      "ĠAustralian": 6031,
      "Ġcandidates": 6032,
      "Ġforces": 6033,
      "Ġspr": 6034,
      "Ġthread": 6035,
      "Ġupper": 6036,
      "ĠTable": 6037,
      "Ã¡": 6038,
      "Ġdefined": 6039,
      "ĠFrank": 6040,
      "Ġrow": 6041,
      "fection": 6042,
      "Ġresidential": 6043,
      "ĠHand": 6044,
      "OV": 6045,
      "atre": 6046,
      "ĠPack": 6047,
      "ĠIll": 6048,
      "Ġbowl": 6049,
      "Ġmarried": 6050,
      "Ġacid": 6051,
      "Ġur": 6052,
      "Ġelig": 6053,
      "Ġcro": 6054,
      "ĠGen": 6055,
      "ĠBuy": 6056,
      "Ġagencies": 6057,
      "Ġstated": 6058,
      "Ġconcerned": 6059,
      "ĠSpring": 6060,
      "Ġprop": 6061,
      "Ġkill": 6062,
      "Ġinvolve": 6063,
      "Ġfort": 6064,
      "MA": 6065,
      "Ġawareness": 6066,
      "Ġauthent": 6067,
      "OP": 6068,
      "Ġdistinct": 6069,
      "Ġtheory": 6070,
      "Ġprivacy": 6071,
      "Ġcorresp": 6072,
      "Ġheight": 6073,
      "Ġplanned": 6074,
      "Ġgrown": 6075,
      "Ġkeeps": 6076,
      "Ġvictim": 6077,
      "Ġinspiration": 6078,
      "Ġinvent": 6079,
      "Ġexpectations": 6080,
      "Ġends": 6081,
      "ĠPass": 6082,
      "Ġstudio": 6083,
      "ossible": 6084,
      "ilst": 6085,
      "ĠLeague": 6086,
      "arsh": 6087,
      "ache": 6088,
      "ĠWomen": 6089,
      "rum": 6090,
      "Ġsilver": 6091,
      "ĠAbout": 6092,
      "Ġsubmit": 6093,
      "ĠUl": 6094,
      "istan": 6095,
      "Ġloans": 6096,
      "iter": 6097,
      "Ġtwice": 6098,
      "Ġstyles": 6099,
      "Ġmel": 6100,
      "Ġcrew": 6101,
      "Ġdegrees": 6102,
      "Ġloves": 6103,
      "Ġshel": 6104,
      "Ġemployment": 6105,
      "Ġprompt": 6106,
      "Ġrecorded": 6107,
      "Ġengage": 6108,
      "ato": 6109,
      "cuit": 6110,
      "ĠAccess": 6111,
      "LA": 6112,
      "ĠRest": 6113,
      "Ġexclusive": 6114,
      "ĠRobert": 6115,
      "Ġfailed": 6116,
      "ĠManager": 6117,
      "Ġcycle": 6118,
      "azz": 6119,
      "Ġfilter": 6120,
      "inn": 6121,
      "Ġnoted": 6122,
      "Ġappeared": 6123,
      "Ġcircumstances": 6124,
      "Ġfrequently": 6125,
      "ĠLos": 6126,
      "66": 6127,
      "ĠPlace": 6128,
      "Ġsubstant": 6129,
      "ndom": 6130,
      "Ġconducted": 6131,
      "Ġthorough": 6132,
      "Ġnom": 6133,
      "Ġinterface": 6134,
      "rate": 6135,
      "Ġaccessible": 6136,
      "ua": 6137,
      "Ġfif": 6138,
      "Ġsyn": 6139,
      "ht": 6140,
      "ĠCEO": 6141,
      "Ġskill": 6142,
      "Ġinstitutions": 6143,
      "Ġsymbol": 6144,
      "Ġdeck": 6145,
      "Ġanx": 6146,
      "Ġpublish": 6147,
      "Ġticket": 6148,
      "ĠConference": 6149,
      "ighter": 6150,
      "ĠChildren": 6151,
      "Ġriver": 6152,
      "ificate": 6153,
      "ĠFlo": 6154,
      "Ġeleg": 6155,
      "dem": 6156,
      "ĠMinister": 6157,
      "Ġroot": 6158,
      "Ġintegrated": 6159,
      "Ġmeetings": 6160,
      "Ġsignal": 6161,
      "igan": 6162,
      "Ġtaught": 6163,
      "Ġfourth": 6164,
      "Ġhosting": 6165,
      "Ġrear": 6166,
      "Ġsac": 6167,
      "Ġbless": 6168,
      "ora": 6169,
      "ĠCre": 6170,
      "Ġprofit": 6171,
      "Ġimpressive": 6172,
      "Ġmir": 6173,
      "ĠEr": 6174,
      "Ġdefault": 6175,
      "Ġconver": 6176,
      "Ġdiverse": 6177,
      "Ġlandscape": 6178,
      "Ġtypical": 6179,
      "ĠWil": 6180,
      "ĠLand": 6181,
      "ĠSqu": 6182,
      "Ġmini": 6183,
      "Ġease": 6184,
      "Ġsearching": 6185,
      "osite": 6186,
      "comes": 6187,
      "erts": 6188,
      "Ġchallenging": 6189,
      "Ġinnovation": 6190,
      "Ġparam": 6191,
      "Ġchat": 6192,
      "Ġgarage": 6193,
      "Ġcompens": 6194,
      "Ġspeaking": 6195,
      "Ġfacilit": 6196,
      "ĠPub": 6197,
      "Ġcoup": 6198,
      "Ġimagine": 6199,
      "Ġmountain": 6200,
      "ĠCH": 6201,
      "Ġoutstanding": 6202,
      "west": 6203,
      "Ġking": 6204,
      "Ġmassive": 6205,
      "Ġfeatured": 6206,
      "lete": 6207,
      "ĠMP": 6208,
      "Ġalle": 6209,
      "Ġjack": 6210,
      "Ġpositions": 6211,
      "Ġqualified": 6212,
      "ĠApplic": 6213,
      "Ġemotional": 6214,
      "Ġregional": 6215,
      "Ġbrowser": 6216,
      "Ġstunning": 6217,
      "Ġeveryday": 6218,
      "Ġsevere": 6219,
      "Ġentertainment": 6220,
      "Ġdestination": 6221,
      "secut": 6222,
      "Ġexecutive": 6223,
      "Ġvoc": 6224,
      "ĠGall": 6225,
      "Ġelection": 6226,
      "ias": 6227,
      "Ġflexible": 6228,
      "osh": 6229,
      "Ġ36": 6230,
      "oop": 6231,
      "Ġdescription": 6232,
      "osoph": 6233,
      "anges": 6234,
      "igration": 6235,
      "CE": 6236,
      "ĠVer": 6237,
      "Ġserves": 6238,
      "Ġfoundation": 6239,
      "Ġextended": 6240,
      "Ġang": 6241,
      "Ġfro": 6242,
      "ĠJud": 6243,
      "orable": 6244,
      "Ġvital": 6245,
      "ĠCe": 6246,
      "related": 6247,
      "Ġtransition": 6248,
      "Ġagreed": 6249,
      "ĠSeries": 6250,
      "Ġformed": 6251,
      "âĢľ": 6252,
      "ĠEconom": 6253,
      "Ġagents": 6254,
      "yc": 6255,
      "Ġentr": 6256,
      "Ġturns": 6257,
      "Ġobjects": 6258,
      "cknow": 6259,
      "Ġcloser": 6260,
      "Ġwealth": 6261,
      "Ġyellow": 6262,
      "sm": 6263,
      "Ġequal": 6264,
      "Ġrail": 6265,
      "Ġbelief": 6266,
      "ĠLouis": 6267,
      "EE": 6268,
      "arrow": 6269,
      "Ġcontrast": 6270,
      "Ġpun": 6271,
      "Ġrandom": 6272,
      "ĠTrust": 6273,
      "Ġphase": 6274,
      "weight": 6275,
      "ĠNetwork": 6276,
      "Ġlifestyle": 6277,
      "Ġtrouble": 6278,
      "Ġtemplate": 6279,
      "Ġdepth": 6280,
      "ĠDev": 6281,
      "ĠCreat": 6282,
      "ensity": 6283,
      "Ġoperate": 6284,
      "Ġmic": 6285,
      "Ġkick": 6286,
      "Ġnine": 6287,
      "Ġscheduled": 6288,
      "bur": 6289,
      "Ġ2004": 6290,
      "ĠAD": 6291,
      "ĠCost": 6292,
      "Ġconcrete": 6293,
      "Ġcaught": 6294,
      "CT": 6295,
      "ĠSearch": 6296,
      "ena": 6297,
      "ĠHuman": 6298,
      "Ġdiss": 6299,
      "ĠUnf": 6300,
      "orgeous": 6301,
      "Ġrecognized": 6302,
      "anda": 6303,
      "Ġdrugs": 6304,
      "Ġincl": 6305,
      "Ġchoosing": 6306,
      "erry": 6307,
      "ĠItalian": 6308,
      "Ġfemale": 6309,
      "Ġweap": 6310,
      "ĠClean": 6311,
      "Ġimplementation": 6312,
      "Ġmotion": 6313,
      "Ġclosely": 6314,
      "Ġentirely": 6315,
      "Ġcable": 6316,
      "Ġrisks": 6317,
      "ĠControl": 6318,
      "%.": 6319,
      "He": 6320,
      "wing": 6321,
      "ĠDisc": 6322,
      "asts": 6323,
      "ĠRussian": 6324,
      "ĠCanadian": 6325,
      "Ġaspect": 6326,
      "Ġtiss": 6327,
      "othe": 6328,
      "Ġgolf": 6329,
      "Ġfreedom": 6330,
      "77": 6331,
      "Ġhealthcare": 6332,
      "Ġroutine": 6333,
      "46": 6334,
      "Ġregulations": 6335,
      "Ġflag": 6336,
      "Ġpm": 6337,
      "Ġsavings": 6338,
      "ĠOpt": 6339,
      "Ġrough": 6340,
      "Ġpregn": 6341,
      "Ġmoist": 6342,
      "Ġtrig": 6343,
      "Â°": 6344,
      "aren": 6345,
      "can": 6346,
      "ords": 6347,
      "Ġeditor": 6348,
      "ĠNov": 6349,
      "Ġvirtual": 6350,
      "Ġinformed": 6351,
      "Ġgro": 6352,
      "ye": 6353,
      "race": 6354,
      "ĠParis": 6355,
      "under": 6356,
      "Ġupcoming": 6357,
      "rency": 6358,
      "ĠThomas": 6359,
      "Ġprogramme": 6360,
      "ĠDemocr": 6361,
      "ĠMA": 6362,
      "Ġidentity": 6363,
      "ĠEnergy": 6364,
      "Ġprotected": 6365,
      "ĠSP": 6366,
      "Ġtab": 6367,
      "Ġcarbon": 6368,
      "Ġmovies": 6369,
      "Ġsou": 6370,
      "ĠBed": 6371,
      "ĠJose": 6372,
      "Ġexpression": 6373,
      "ĠWatch": 6374,
      "Ġcooper": 6375,
      "Ġusual": 6376,
      "Ġrom": 6377,
      "Ġapartment": 6378,
      "ĠRoyal": 6379,
      "Ġcapable": 6380,
      "away": 6381,
      "Ġmedicine": 6382,
      "Ġfavourite": 6383,
      "Ġnearby": 6384,
      "ĠTry": 6385,
      "ĠLog": 6386,
      "idays": 6387,
      "ĠRussia": 6388,
      "????": 6389,
      "Ġadm": 6390,
      "ĠEnjoy": 6391,
      "Ġpharm": 6392,
      "Ġairport": 6393,
      "31": 6394,
      "Ġtechnique": 6395,
      "Ġcreates": 6396,
      "Ġadvoc": 6397,
      "Ġhorse": 6398,
      "ĠLooking": 6399,
      "ii": 6400,
      "ĠBal": 6401,
      "Ġreturns": 6402,
      "ĠAcademy": 6403,
      "ĠAdminist": 6404,
      "Ġwitness": 6405,
      "Ġstars": 6406,
      "ushing": 6407,
      "Ġengagement": 6408,
      "ĠKey": 6409,
      "ĠFestival": 6410,
      "Ġpersonally": 6411,
      "Ġentreprene": 6412,
      "Ġfeaturing": 6413,
      "ca": 6414,
      "Ġliquid": 6415,
      "Ġdental": 6416,
      "Ġincreases": 6417,
      "].": 6418,
      "Ġfacing": 6419,
      "Ġ48": 6420,
      "Ġremoval": 6421,
      "Ġmoments": 6422,
      "Ġstands": 6423,
      "ĠAuthor": 6424,
      "Ġatmosphere": 6425,
      "Ġnative": 6426,
      "Ġcollected": 6427,
      "Ġvend": 6428,
      "Ġpassword": 6429,
      "Ġcommission": 6430,
      "Ġnetworks": 6431,
      "umps": 6432,
      "ĠTru": 6433,
      "SE": 6434,
      "pret": 6435,
      "Ġdraft": 6436,
      "Ġworse": 6437,
      "Ġgifts": 6438,
      "intage": 6439,
      "Ġmissed": 6440,
      "itage": 6441,
      "Ġpil": 6442,
      "Ġcomponent": 6443,
      "ĠWay": 6444,
      "endar": 6445,
      "Ġsupposed": 6446,
      "Ġacknow": 6447,
      "ĠAR": 6448,
      "Ġauthority": 6449,
      "Ġoven": 6450,
      "liers": 6451,
      "Ġmixed": 6452,
      "ĠThough": 6453,
      "look": 6454,
      "Ġrank": 6455,
      "Ġcertified": 6456,
      "UN": 6457,
      "Ġorganis": 6458,
      "Ġresearchers": 6459,
      "Ġmuseum": 6460,
      "ĠMult": 6461,
      "ĠMax": 6462,
      "Ġretire": 6463,
      "Ġtrends": 6464,
      "ĠCode": 6465,
      "car": 6466,
      "Ġbanks": 6467,
      "Ġodd": 6468,
      "Ġclassroom": 6469,
      "Ġmonitoring": 6470,
      "Ġmonitor": 6471,
      "Ġpartnership": 6472,
      "arian": 6473,
      "Ġreward": 6474,
      "Ġguidance": 6475,
      "Ġdumpster": 6476,
      "Ġdeploy": 6477,
      "Ġcollaboration": 6478,
      "Ġstopped": 6479,
      "ĠMexico": 6480,
      "Ġelectrical": 6481,
      "ĠAmericans": 6482,
      "Ġvast": 6483,
      "Ġdomestic": 6484,
      "Ġapparent": 6485,
      "Ġcrucial": 6486,
      "II": 6487,
      "Ġcrusher": 6488,
      "Ġedition": 6489,
      "Ġaffili": 6490,
      "Ġcolumn": 6491,
      "irty": 6492,
      "ĠSupport": 6493,
      "ansion": 6494,
      "alled": 6495,
      "Ġcharged": 6496,
      "Ġsister": 6497,
      "Ġdefense": 6498,
      "ras": 6499,
      "ĠVictor": 6500,
      "ta": 6501,
      "ĠSmall": 6502,
      "Ġsan": 6503,
      "Ġexceed": 6504,
      "ĠFair": 6505,
      "han": 6506,
      "orders": 6507,
      "ĠMic": 6508,
      "Ġarts": 6509,
      "Ġclimb": 6510,
      "llo": 6511,
      "Ġinches": 6512,
      "Ġconsistent": 6513,
      "Ġtom": 6514,
      "Ġobtained": 6515,
      "Ġnormally": 6516,
      "Ġkit": 6517,
      "Ġhappening": 6518,
      "dden": 6519,
      "Ġkilled": 6520,
      "irmed": 6521,
      "Ġveter": 6522,
      "ĠUnfortunately": 6523,
      "Ġsurprise": 6524,
      "ĠRoom": 6525,
      "ĠHaw": 6526,
      "Ġgenerate": 6527,
      "Ġcorrespond": 6528,
      "umes": 6529,
      "ĠLook": 6530,
      "made": 6531,
      "Ġarg": 6532,
      "iked": 6533,
      "Ġast": 6534,
      "Ġdangerous": 6535,
      "stone": 6536,
      "Ġpicked": 6537,
      "ĠBeaut": 6538,
      "ĠJim": 6539,
      "Ġenthus": 6540,
      "Ġnoticed": 6541,
      "Ġbooking": 6542,
      "Ġdesigner": 6543,
      "rid": 6544,
      "Ġvacation": 6545,
      "âĢ¦.": 6546,
      "Ġexpenses": 6547,
      "Ġmainly": 6548,
      "ĠRev": 6549,
      "ĠCond": 6550,
      "merce": 6551,
      "ints": 6552,
      "acks": 6553,
      "Ġlessons": 6554,
      "Ġtub": 6555,
      "ĠEnd": 6556,
      "Ġcelebrate": 6557,
      "Ġwet": 6558,
      "Ġages": 6559,
      "Ġobvious": 6560,
      "Ġdates": 6561,
      "ĠGar": 6562,
      "kers": 6563,
      "Ġimproving": 6564,
      "Ġshock": 6565,
      "ĠSar": 6566,
      "ĠMiddle": 6567,
      "Ġerr": 6568,
      "Ġtested": 6569,
      "ĠDespite": 6570,
      "ĠCab": 6571,
      "Ġorganized": 6572,
      "ãĢ": 6573,
      "Ġequipped": 6574,
      "Ġrein": 6575,
      "Ġsky": 6576,
      "pat": 6577,
      "ĠHim": 6578,
      "Ġtelevision": 6579,
      "Ġattached": 6580,
      "Ġ195": 6581,
      "ĠPriv": 6582,
      "Ġunlike": 6583,
      "ĠId": 6584,
      "Ġwinner": 6585,
      "ĠPac": 6586,
      "ĠCup": 6587,
      "ĠMid": 6588,
      "ĠJul": 6589,
      "Ġongoing": 6590,
      "ĠSecret": 6591,
      "uine": 6592,
      "ĠChair": 6593,
      "Ġbonus": 6594,
      "SP": 6595,
      "Ġindex": 6596,
      "ĠShould": 6597,
      "Ġsoil": 6598,
      "Ġdiscussed": 6599,
      "Ġfishing": 6600,
      "aturally": 6601,
      "Ġ2003": 6602,
      "ML": 6603,
      "Ġwearing": 6604,
      "Ġstrategic": 6605,
      "folio": 6606,
      "Ġsad": 6607,
      "ĠMen": 6608,
      "Ġclothes": 6609,
      "Ġentered": 6610,
      "Ġpleased": 6611,
      "ĠWild": 6612,
      "ĠThus": 6613,
      "ingly": 6614,
      "abet": 6615,
      "REE": 6616,
      "Ġscr": 6617,
      "Ġprecise": 6618,
      "Ġquote": 6619,
      "Ġscholars": 6620,
      "Ġdelay": 6621,
      "Ġearned": 6622,
      "Ġgrew": 6623,
      "Ġadventure": 6624,
      "vi": 6625,
      "Ġreligious": 6626,
      "Ġcampus": 6627,
      "Ġsudden": 6628,
      "ĠSaf": 6629,
      "Ġturning": 6630,
      "vy": 6631,
      "ears": 6632,
      "Ġtells": 6633,
      "Ġnucle": 6634,
      "Ġurban": 6635,
      "Ġok": 6636,
      "Ġarrest": 6637,
      "Ġtalent": 6638,
      "Ġinstruct": 6639,
      "kins": 6640,
      "Ġslot": 6641,
      "yan": 6642,
      "Ġancient": 6643,
      "oral": 6644,
      "Ġresulting": 6645,
      "ĠVide": 6646,
      "ban": 6647,
      "ĠSite": 6648,
      "ĠIre": 6649,
      "ĠKnow": 6650,
      "ĠExecut": 6651,
      "Ġstain": 6652,
      "ĠChris": 6653,
      "Ġtransportation": 6654,
      "Ġinstrument": 6655,
      "date": 6656,
      "Ġunable": 6657,
      "Ġconv": 6658,
      "Ġmusical": 6659,
      "yard": 6660,
      "Ġachieved": 6661,
      "enced": 6662,
      "cover": 6663,
      "Ġspiritual": 6664,
      "Ġbes": 6665,
      "case": 6666,
      "Ġcute": 6667,
      "Ġmanaging": 6668,
      "Ġarchitecture": 6669,
      "Ġdownt": 6670,
      "ĠDigital": 6671,
      "real": 6672,
      "Ġmere": 6673,
      "Ġbeer": 6674,
      "Ġ!": 6675,
      "Ġgallery": 6676,
      "ala": 6677,
      "front": 6678,
      "Ġshops": 6679,
      "Ġbear": 6680,
      "ĠWelcome": 6681,
      "Ġdesired": 6682,
      "Ġproof": 6683,
      "alle": 6684,
      "Ġsoul": 6685,
      "Ġfiled": 6686,
      "Ġfitness": 6687,
      "Ġattra": 6688,
      "ĠBath": 6689,
      "nament": 6690,
      "ĠGame": 6691,
      "PC": 6692,
      "Ġprinted": 6693,
      "ingu": 6694,
      "ĠDu": 6695,
      "Ġworkshop": 6696,
      "Ġnone": 6697,
      "resents": 6698,
      "worth": 6699,
      "Ġundert": 6700,
      "Ġspeech": 6701,
      "Ġindeed": 6702,
      "Ġsustainable": 6703,
      "eration": 6704,
      "Ġwest": 6705,
      "ĠCurrent": 6706,
      "Ġexposure": 6707,
      "ĠCa": 6708,
      "Ġrevealed": 6709,
      "eline": 6710,
      "ĠFarm": 6711,
      "Ġtiny": 6712,
      "Ġyesterday": 6713,
      "Ġhang": 6714,
      "Ġsight": 6715,
      "Ġhyp": 6716,
      "ĠLibrary": 6717,
      "cers": 6718,
      "Ġmur": 6719,
      "roph": 6720,
      "TH": 6721,
      "ĠVan": 6722,
      "tle": 6723,
      "Ġreporting": 6724,
      "Ġpossibility": 6725,
      "ĠSpanish": 6726,
      "Ġflood": 6727,
      "Ġmembership": 6728,
      "Ġmanufacturers": 6729,
      "Ġpapers": 6730,
      "ĠCoast": 6731,
      "Ġlinked": 6732,
      "Ġversions": 6733,
      "Ġnegoti": 6734,
      "Ġcandidate": 6735,
      "Ġboys": 6736,
      "bra": 6737,
      "Ġelev": 6738,
      "Ġpill": 6739,
      "Ġcontribute": 6740,
      "berry": 6741,
      "Ġforth": 6742,
      "Ġfairly": 6743,
      "ĠFederal": 6744,
      "Ġabsor": 6745,
      "Ġperforming": 6746,
      "Ġphotograp": 6747,
      "Ġconfident": 6748,
      "Ġgrab": 6749,
      "ĠReport": 6750,
      "Ġhall": 6751,
      "Ġcapture": 6752,
      "Ġdiscip": 6753,
      "Ġpoker": 6754,
      "ĠSuch": 6755,
      "Ġpasseng": 6756,
      "Ġdifferences": 6757,
      "bi": 6758,
      "Ġphotography": 6759,
      "nic": 6760,
      "icit": 6761,
      "Ġplatforms": 6762,
      "ĠRight": 6763,
      "ĠMike": 6764,
      "Ġpipe": 6765,
      "Ġlapt": 6766,
      "ĠPrem": 6767,
      "ĠComple": 6768,
      "luded": 6769,
      "Ġfilms": 6770,
      "achel": 6771,
      "Ã¼": 6772,
      "Ġreputation": 6773,
      "Ġletters": 6774,
      "ĠShop": 6775,
      "bles": 6776,
      "ĠCath": 6777,
      "Ġrecognize": 6778,
      "ĠCross": 6779,
      "Ġdynamic": 6780,
      "Ġwhenever": 6781,
      "Ġtall": 6782,
      "01": 6783,
      "Ġimpossible": 6784,
      "Ġsufficient": 6785,
      "Ġ75": 6786,
      "Ġdisappoint": 6787,
      "Ġcommunications": 6788,
      "Ġtech": 6789,
      "Ġforced": 6790,
      "Ġexplained": 6791,
      "GB": 6792,
      "ĠYet": 6793,
      "Ġcompare": 6794,
      "Ġformal": 6795,
      "uction": 6796,
      "Ġinvestigation": 6797,
      "Ġgraduate": 6798,
      "VD": 6799,
      "Ġcos": 6800,
      "ĠTerm": 6801,
      "oston": 6802,
      "edia": 6803,
      "Ġsuggested": 6804,
      "Ġspons": 6805,
      "Ġzone": 6806,
      "oty": 6807,
      "Ġarrive": 6808,
      "ava": 6809,
      "ĠArab": 6810,
      "writ": 6811,
      "arks": 6812,
      "Ġaccessories": 6813,
      "Ġauthors": 6814,
      "ĠPenn": 6815,
      "otton": 6816,
      "ĠCharl": 6817,
      "celer": 6818,
      "ading": 6819,
      "Ġgrass": 6820,
      "ĠAccount": 6821,
      "Ġresistance": 6822,
      "ĠAngeles": 6823,
      "hem": 6824,
      "ppers": 6825,
      "gend": 6826,
      "Ġ..": 6827,
      "Ġtap": 6828,
      "Ġtelling": 6829,
      "profit": 6830,
      "Ġpreparation": 6831,
      "Ġstretch": 6832,
      "Ġstim": 6833,
      "Ġrepresents": 6834,
      "Ġstored": 6835,
      "Ġsolve": 6836,
      "Ġtaxes": 6837,
      "Ġalign": 6838,
      "Ġmixture": 6839,
      "TC": 6840,
      "Ġmeals": 6841,
      "Ġattorney": 6842,
      "she": 6843,
      "holders": 6844,
      "Ġcounsel": 6845,
      "Ġbasket": 6846,
      "Ġtank": 6847,
      "?\"": 6848,
      "ĠMcC": 6849,
      "Ġbottle": 6850,
      "Ġbags": 6851,
      "ĠLive": 6852,
      "Ġproven": 6853,
      "Ġadds": 6854,
      "Ġje": 6855,
      "va": 6856,
      "Ġdealing": 6857,
      "Ġcommittee": 6858,
      "Ġfolks": 6859,
      "Ġconstant": 6860,
      "Ġjudge": 6861,
      "ether": 6862,
      "Ġtransp": 6863,
      "Ġlogo": 6864,
      "ĠChief": 6865,
      "ĠLittle": 6866,
      "Ġimmediate": 6867,
      "tr": 6868,
      "Ġclar": 6869,
      "Ġtreatments": 6870,
      "Ġvisited": 6871,
      "Ġcrisis": 6872,
      "Ġoriginally": 6873,
      "ĠAssist": 6874,
      "ĠBeing": 6875,
      "05": 6876,
      "Ġincorpor": 6877,
      "Ġrelief": 6878,
      "ĠNever": 6879,
      "Ġgorgeous": 6880,
      "ĠItaly": 6881,
      "Ġmining": 6882,
      "ographic": 6883,
      "ĠFort": 6884,
      "Ġhur": 6885,
      "Ġlistening": 6886,
      "Ġther": 6887,
      "ĠMartin": 6888,
      "Ġfasc": 6889,
      "ĠWin": 6890,
      "Ġoffices": 6891,
      "Ġinjuries": 6892,
      "cking": 6893,
      "erning": 6894,
      "mary": 6895,
      "42": 6896,
      "Ġofficer": 6897,
      "ĠPolice": 6898,
      "Ġextension": 6899,
      "Ġhero": 6900,
      "astern": 6901,
      "comm": 6902,
      "omy": 6903,
      "Ġflavor": 6904,
      "Ġchief": 6905,
      "Ġthin": 6906,
      "ĠFig": 6907,
      "ĠDC": 6908,
      "gas": 6909,
      "ĠWebs": 6910,
      "Ġenables": 6911,
      "ĠTimes": 6912,
      "ĠThree": 6913,
      "ĠCR": 6914,
      "ĠDef": 6915,
      "Ġsubsequ": 6916,
      "Ġinch": 6917,
      "Ġhistoric": 6918,
      "ller": 6919,
      "Ġathlet": 6920,
      "Ġscan": 6921,
      "Ġpod": 6922,
      "MP": 6923,
      "ĠPoint": 6924,
      "Ġreferred": 6925,
      "Ġ<": 6926,
      "Ġfirms": 6927,
      "etry": 6928,
      "ailable": 6929,
      "Ġbond": 6930,
      "ĠScot": 6931,
      "ĠVirginia": 6932,
      "asters": 6933,
      "Ġsuc": 6934,
      "ĠHen": 6935,
      "stra": 6936,
      "Ġreduction": 6937,
      "ĠLow": 6938,
      "Ġrecording": 6939,
      "ĠSystems": 6940,
      "ifies": 6941,
      "Ġevol": 6942,
      "ĠObama": 6943,
      "Ġcounty": 6944,
      "ĠKen": 6945,
      "Ġfunctional": 6946,
      "Ġdust": 6947,
      "Ġfinance": 6948,
      "you": 6949,
      "izer": 6950,
      "Ġprinting": 6951,
      "owing": 6952,
      "ĠBob": 6953,
      "utch": 6954,
      "Ġshift": 6955,
      "Ġanticip": 6956,
      "ĠWould": 6957,
      "Ġavailability": 6958,
      "ĠPA": 6959,
      "ĠInstagram": 6960,
      "ĠAdditionally": 6961,
      "Ġvul": 6962,
      "ĠRemember": 6963,
      "Ġattended": 6964,
      "Ġsmile": 6965,
      "Ġspecialist": 6966,
      "jection": 6967,
      "Ġstructures": 6968,
      "ĠCir": 6969,
      "Ġprimarily": 6970,
      "Ġteen": 6971,
      "Ġwidely": 6972,
      "ĠIreland": 6973,
      "Ġtrave": 6974,
      "ĠColl": 6975,
      "Ġindustries": 6976,
      "Ġprinciples": 6977,
      "85": 6978,
      "Ġamounts": 6979,
      "ĠBible": 6980,
      "ĠEs": 6981,
      "Ġfigures": 6982,
      "ĠFOR": 6983,
      "ĠJeff": 6984,
      "Ġhidden": 6985,
      "Ġsusp": 6986,
      "itution": 6987,
      "Ġinvited": 6988,
      "df": 6989,
      "ĠGeorg": 6990,
      "odel": 6991,
      "ĠLED": 6992,
      "Ġclothing": 6993,
      "Ġordered": 6994,
      "agon": 6995,
      "ĠHistory": 6996,
      "Ġhabit": 6997,
      "Ġempt": 6998,
      "illy": 6999,
      "ĠComput": 7000,
      "Ġplanet": 7001,
      "ura": 7002,
      "build": 7003,
      "ĠMobile": 7004,
      "âĢĻ,": 7005,
      "Ġyard": 7006,
      "Ġfellow": 7007,
      "Ġdescribe": 7008,
      "Ġreplaced": 7009,
      "SC": 7010,
      "Ġgard": 7011,
      "ulating": 7012,
      "Ġsuperior": 7013,
      "Ġdevelopers": 7014,
      "class": 7015,
      "agues": 7016,
      "Ġpricing": 7017,
      "ĠInsurance": 7018,
      "Ġlosing": 7019,
      "ĠHard": 7020,
      "ĠKitchen": 7021,
      "Ġweekly": 7022,
      "ĠBoston": 7023,
      "ican": 7024,
      "sters": 7025,
      "Ġaccord": 7026,
      "oh": 7027,
      "ĠLiving": 7028,
      "Ġdepends": 7029,
      "ĠHospital": 7030,
      "Ġord": 7031,
      "Ġtack": 7032,
      "Ġfounded": 7033,
      "Ġrice": 7034,
      "ogue": 7035,
      "omin": 7036,
      "ĠEp": 7037,
      "ĠIsl": 7038,
      "Ġliked": 7039,
      "quality": 7040,
      "state": 7041,
      "Ġsmell": 7042,
      "Ġcodes": 7043,
      "Ġborder": 7044,
      "Ġguitar": 7045,
      "ĠSU": 7046,
      "Ġexperiment": 7047,
      "ĠSpirit": 7048,
      "Ġdrawing": 7049,
      "Ġepisode": 7050,
      "Ġcommunicate": 7051,
      "ĠFour": 7052,
      "Ġattractive": 7053,
      "Ġtransaction": 7054,
      "iences": 7055,
      "Ġdefend": 7056,
      "Ġrealized": 7057,
      "ĠCast": 7058,
      "inte": 7059,
      "ĠNeed": 7060,
      "Ġspin": 7061,
      "Ġprove": 7062,
      "Ġmortgage": 7063,
      "Ġhotels": 7064,
      "Ġdispos": 7065,
      "ĠSky": 7066,
      "FL": 7067,
      "Ġhttps": 7068,
      "Ġdent": 7069,
      "Ġsubmitted": 7070,
      "Ġrecipes": 7071,
      "Ġcharm": 7072,
      "Ġ150": 7073,
      "ĠLin": 7074,
      "Ġreducing": 7075,
      "Ġwireless": 7076,
      "Ġtrick": 7077,
      "hire": 7078,
      "Ġapplicable": 7079,
      "Ġcontro": 7080,
      "ĠMur": 7081,
      "Ġchapter": 7082,
      "Ġenterprise": 7083,
      "Ġphen": 7084,
      "level": 7085,
      "Ġguard": 7086,
      "Ġultimately": 7087,
      "Ġfacts": 7088,
      "Ġnutrition": 7089,
      "Ġrig": 7090,
      "Ġcapabilities": 7091,
      "ĠProper": 7092,
      "Ġbrill": 7093,
      "Ġpowder": 7094,
      "Ġeligible": 7095,
      "ĠJoe": 7096,
      "Ġbodies": 7097,
      "ĠPerhaps": 7098,
      "Ġnoise": 7099,
      "Ġconcl": 7100,
      "ĠPhys": 7101,
      "?âĢĿ": 7102,
      "ĠSon": 7103,
      "quir": 7104,
      "Ġsurprised": 7105,
      "ĠCarolina": 7106,
      "Ġseriously": 7107,
      "ĠYoung": 7108,
      "isk": 7109,
      "Ġgenuine": 7110,
      "Ġpercentage": 7111,
      "Ġenforce": 7112,
      "Ġcriminal": 7113,
      "ĠLib": 7114,
      "iece": 7115,
      "ĠStill": 7116,
      "Ġ2001": 7117,
      "Ġcompliance": 7118,
      "ĠPrice": 7119,
      "Ġultimate": 7120,
      "Ġinn": 7121,
      "Ġestimated": 7122,
      "zer": 7123,
      "Ġpursu": 7124,
      "rip": 7125,
      "ĠÂ·": 7126,
      "Ġduty": 7127,
      "Ġ2002": 7128,
      "Ġnarrow": 7129,
      "ĠVill": 7130,
      "Ġofficers": 7131,
      "ĠNon": 7132,
      "lements": 7133,
      "ĠFun": 7134,
      "ĠMeet": 7135,
      "Ġwash": 7136,
      "Ġpermanent": 7137,
      "Ġpassing": 7138,
      "Ġsaved": 7139,
      "Ġinteract": 7140,
      "Ġawarded": 7141,
      "ĠTravel": 7142,
      "Ġinner": 7143,
      "ĠInf": 7144,
      "ĠAgain": 7145,
      "ĠTit": 7146,
      "Ġmagazine": 7147,
      "neys": 7148,
      "Ġmuscle": 7149,
      "Ġrecommendations": 7150,
      "ĠExecutive": 7151,
      "Ġseats": 7152,
      "GE": 7153,
      "Ġsatisfaction": 7154,
      "Ġhandling": 7155,
      "Ġsucceed": 7156,
      "alse": 7157,
      "Ġaccomplish": 7158,
      "mond": 7159,
      "ĠHa": 7160,
      "Ġenem": 7161,
      "hew": 7162,
      "ĠFinancial": 7163,
      "ĠZeal": 7164,
      "ĠWorks": 7165,
      "iano": 7166,
      "ĠStore": 7167,
      "Ġarms": 7168,
      "aper": 7169,
      "Ġvent": 7170,
      "Ġillness": 7171,
      "Ġmarriage": 7172,
      "Ġguidelines": 7173,
      "Ġjew": 7174,
      "ĠSanta": 7175,
      "Ġauthorities": 7176,
      "Ġdestroy": 7177,
      "ÃŃ": 7178,
      "Ġgenerated": 7179,
      "ĠEngineering": 7180,
      "Ġconsideration": 7181,
      "Ġflower": 7182,
      "Ġconsists": 7183,
      "ĠOS": 7184,
      "long": 7185,
      "Ġmand": 7186,
      "ĠColumb": 7187,
      "Ġattacks": 7188,
      "pel": 7189,
      "Ġcategories": 7190,
      "oured": 7191,
      "Ġportfolio": 7192,
      "ĠWH": 7193,
      "ĠEnt": 7194,
      "ĠForm": 7195,
      "Ġchose": 7196,
      "site": 7197,
      "stream": 7198,
      "Ġextent": 7199,
      "Ġid": 7200,
      "Ġrequests": 7201,
      "____": 7202,
      "Ġscheme": 7203,
      "Ġfestival": 7204,
      "Ġsending": 7205,
      "Ġproducing": 7206,
      "Ġensuring": 7207,
      "Ġmold": 7208,
      "Ġphilosoph": 7209,
      "ĠSouthern": 7210,
      "Ġinvolves": 7211,
      "Ġsynt": 7212,
      "Ġoverw": 7213,
      "ĠDub": 7214,
      "ĠAri": 7215,
      "uls": 7216,
      "BI": 7217,
      "Ġapproval": 7218,
      "gor": 7219,
      "Ġkm": 7220,
      "Ġinsight": 7221,
      "Ġsin": 7222,
      "ĠLee": 7223,
      "Ġhonor": 7224,
      "Ġchannels": 7225,
      "Ġdiscl": 7226,
      "ĠBow": 7227,
      "Ġmillions": 7228,
      "ĠSelect": 7229,
      "Ġboxes": 7230,
      "ĠSEO": 7231,
      "Ġcarpet": 7232,
      "Ġbridge": 7233,
      "friendly": 7234,
      "ĠPDF": 7235,
      "Ġhealing": 7236,
      "Ġcomparison": 7237,
      "Ġmanagers": 7238,
      "Ġconfirmed": 7239,
      "Ġterror": 7240,
      "ellect": 7241,
      "Ġviolence": 7242,
      "tocol": 7243,
      "ĠSn": 7244,
      "Ġsick": 7245,
      "ĠGir": 7246,
      "Ġconnections": 7247,
      "Ġcrime": 7248,
      "Ġagricult": 7249,
      "host": 7250,
      "Ġdecade": 7251,
      "ĠDan": 7252,
      "ĠHelp": 7253,
      "Ġpriority": 7254,
      "Ġheating": 7255,
      "lymp": 7256,
      "ĠWeek": 7257,
      "Ġslowly": 7258,
      "Ġsoph": 7259,
      "Ġpurchasing": 7260,
      "Ġcontrols": 7261,
      "Ġmile": 7262,
      "Ġdisplayed": 7263,
      "ĠMarketing": 7264,
      "Ġeast": 7265,
      "Ġmemories": 7266,
      "Ġunex": 7267,
      "Ġgent": 7268,
      "Ġmerch": 7269,
      "Ġroles": 7270,
      "ayer": 7271,
      "Ġframework": 7272,
      "Ġhospit": 7273,
      "Ġcompat": 7274,
      "ĠChampions": 7275,
      "ĠSC": 7276,
      "Ġregions": 7277,
      "ĠPract": 7278,
      "Ġtip": 7279,
      "Ġviewed": 7280,
      "Ġcontest": 7281,
      "Ġbench": 7282,
      "ĠZealand": 7283,
      "ĠPut": 7284,
      "Ġstatements": 7285,
      "Ġpresents": 7286,
      "iments": 7287,
      "Ġraw": 7288,
      "cue": 7289,
      "ĠÎ": 7290,
      "Ġtomorrow": 7291,
      "Ġreader": 7292,
      "Ġincreasingly": 7293,
      "Ġstake": 7294,
      "Ġlucky": 7295,
      "Re": 7296,
      "Ġwra": 7297,
      "Ġarray": 7298,
      "Ġinterpret": 7299,
      "person": 7300,
      "ĠEnvironment": 7301,
      "ĠIdeas": 7302,
      "bar": 7303,
      "Ġrating": 7304,
      "Ġsamples": 7305,
      "Ñĥ": 7306,
      "ĠTurn": 7307,
      "Ġdeposit": 7308,
      "ĠUt": 7309,
      "Ġusage": 7310,
      "Ġtooth": 7311,
      "ĠSmart": 7312,
      "Ġwriters": 7313,
      "ĠSel": 7314,
      "ĠMean": 7315,
      "Ġsomewhere": 7316,
      "ĠHon": 7317,
      "Ġstreets": 7318,
      "yers": 7319,
      "Ġwithd": 7320,
      "Ġflour": 7321,
      "Ġ400": 7322,
      "Ġyield": 7323,
      "ĠBuilding": 7324,
      "Ġlikes": 7325,
      "aniel": 7326,
      "rich": 7327,
      "ĠSports": 7328,
      "Ġrose": 7329,
      "inem": 7330,
      "ĠRoman": 7331,
      "ventional": 7332,
      "ĠCra": 7333,
      "Ġbelieved": 7334,
      "Ġconflict": 7335,
      "Ġenjoying": 7336,
      "ĠJon": 7337,
      "ĠCook": 7338,
      "stal": 7339,
      "Ġaside": 7340,
      "Ġbreath": 7341,
      "Ġyounger": 7342,
      "Ġsharp": 7343,
      "Ġwhilst": 7344,
      "Ġconcerning": 7345,
      "Sh": 7346,
      "law": 7347,
      "Ġshooting": 7348,
      "EST": 7349,
      "Ġwooden": 7350,
      "ba": 7351,
      "Ġille": 7352,
      "Ġseed": 7353,
      "Ġalongside": 7354,
      "ĠRichard": 7355,
      "Ġincredibly": 7356,
      "Ġnic": 7357,
      "Ġvulner": 7358,
      "isters": 7359,
      "43": 7360,
      "Ġengaged": 7361,
      "Ġentit": 7362,
      "oster": 7363,
      "Ġcommonly": 7364,
      "Ġpromise": 7365,
      "Ġexception": 7366,
      "ouch": 7367,
      "Ġblend": 7368,
      "Ġpotentially": 7369,
      "Ġdivid": 7370,
      "Ġlad": 7371,
      "ĠĠĠĠ": 7372,
      "Ġvibr": 7373,
      "Ġremark": 7374,
      "ĠLocal": 7375,
      "HS": 7376,
      "Ġjustice": 7377,
      "ĠSea": 7378,
      "Ġrequirement": 7379,
      "78": 7380,
      "Ġintroduction": 7381,
      "Ġreform": 7382,
      "ĠQuest": 7383,
      "duate": 7384,
      "ĠIran": 7385,
      "Ġheav": 7386,
      "terior": 7387,
      "Ġawards": 7388,
      "ĠKn": 7389,
      "ĠBall": 7390,
      "iser": 7391,
      "ĠBon": 7392,
      "Ġbehalf": 7393,
      "Ġhoping": 7394,
      "Ġbuyers": 7395,
      "Ġsuffering": 7396,
      "Ġcontrolled": 7397,
      "ĠGarden": 7398,
      "tics": 7399,
      "rowse": 7400,
      "uling": 7401,
      "zing": 7402,
      "Ġpink": 7403,
      "Ġmagic": 7404,
      "Ġconcepts": 7405,
      "anger": 7406,
      "Ġkne": 7407,
      "ĠHor": 7408,
      "Ġprogramming": 7409,
      "Ġmoves": 7410,
      "ĠCome": 7411,
      "adow": 7412,
      "Ġintent": 7413,
      "rer": 7414,
      "inos": 7415,
      "ĠGames": 7416,
      "ĠJoin": 7417,
      "RI": 7418,
      "Ġexceptional": 7419,
      "ĠDie": 7420,
      "Ġpersons": 7421,
      "eters": 7422,
      "41": 7423,
      "ogen": 7424,
      "Ġperm": 7425,
      "Ġpreferred": 7426,
      "ĠHappy": 7427,
      "Ġrecon": 7428,
      "DS": 7429,
      "irts": 7430,
      "Ġblocks": 7431,
      "ennis": 7432,
      "Ġcausing": 7433,
      "gers": 7434,
      "Ġinspe": 7435,
      "Ġswimming": 7436,
      "Ġminimal": 7437,
      "ĠAp": 7438,
      "Ġresume": 7439,
      "Ġfeelings": 7440,
      "ĠPacific": 7441,
      "Ġconsumption": 7442,
      "Ġlegs": 7443,
      "ATION": 7444,
      "lessly": 7445,
      "Ġsensitive": 7446,
      "LY": 7447,
      "zil": 7448,
      "Ġvisible": 7449,
      "ĠRa": 7450,
      "Ġworst": 7451,
      "ĠJun": 7452,
      "ule": 7453,
      "uster": 7454,
      "ĠBox": 7455,
      "à¸": 7456,
      "Ġ800": 7457,
      "Ġsuggestions": 7458,
      "Ġtracks": 7459,
      "ati": 7460,
      "Ġstring": 7461,
      "Ġstruggle": 7462,
      "Ġsupplement": 7463,
      "Ġexhibition": 7464,
      "Ġpor": 7465,
      "Ġmaintaining": 7466,
      "Ġnewly": 7467,
      "Ġfaculty": 7468,
      "Ġpleasure": 7469,
      "Ġprison": 7470,
      "Ġsuggests": 7471,
      "Ġeggs": 7472,
      "Ġbasically": 7473,
      "Ġcookies": 7474,
      "iverse": 7475,
      "ĠOlymp": 7476,
      "ml": 7477,
      "Ġcritic": 7478,
      "ĠSoftware": 7479,
      "Ġads": 7480,
      "vas": 7481,
      "Ġ33": 7482,
      "ĠRef": 7483,
      "nda": 7484,
      "Ġconsultation": 7485,
      "apore": 7486,
      "live": 7487,
      "ĠCP": 7488,
      "Ġmale": 7489,
      "urning": 7490,
      "ĠJersey": 7491,
      "Ġregardless": 7492,
      "Ġbars": 7493,
      "Ġerrors": 7494,
      "Ġjoining": 7495,
      "ĠSS": 7496,
      "ĠTraining": 7497,
      "Ġë": 7498,
      "stery": 7499,
      "Ġ55": 7500,
      "Ġpackages": 7501,
      "Ġoutcomes": 7502,
      "ĠFREE": 7503,
      "inent": 7504,
      "ĠConf": 7505,
      "Ġupgrade": 7506,
      "Ġsetup": 7507,
      "Ġpenal": 7508,
      "ĠGuide": 7509,
      "Ġbirds": 7510,
      "Ġ38": 7511,
      "Ġcrazy": 7512,
      "essel": 7513,
      "Ã¶": 7514,
      "ns": 7515,
      "Ġrenov": 7516,
      "Ġdishes": 7517,
      "ulum": 7518,
      "Ã³": 7519,
      "ran": 7520,
      "ĠSH": 7521,
      "Ġdefinition": 7522,
      "ĠPot": 7523,
      "Ġextract": 7524,
      "ĠTax": 7525,
      "Tube": 7526,
      "MC": 7527,
      "AA": 7528,
      "iversary": 7529,
      "Ã¤": 7530,
      "Ġgraphics": 7531,
      "bridge": 7532,
      "Ġapplying": 7533,
      "ĠJohnson": 7534,
      "Ġrecognition": 7535,
      "ĠPage": 7536,
      "Ġhumans": 7537,
      "Ġcareful": 7538,
      "Ġcalendar": 7539,
      "Ġnaturally": 7540,
      "Ġrefund": 7541,
      "ĠAsh": 7542,
      "Ġforever": 7543,
      "!\"": 7544,
      "ĠArea": 7545,
      "Ġcontinuing": 7546,
      "Ġevaluation": 7547,
      "Ġlists": 7548,
      "Ġdriven": 7549,
      "Ġflash": 7550,
      "Ġdreams": 7551,
      "ĠOrig": 7552,
      "Ġmarks": 7553,
      "hops": 7554,
      "then": 7555,
      "ĠLine": 7556,
      "ĠSteve": 7557,
      "phones": 7558,
      "Ġoverwhel": 7559,
      "zes": 7560,
      "Ġblind": 7561,
      "ogether": 7562,
      "Ġintegration": 7563,
      "Ġsomewhat": 7564,
      "Ġvegetables": 7565,
      "ĠMichigan": 7566,
      "cular": 7567,
      "Ġdispl": 7568,
      "Ġblank": 7569,
      "ĠOrder": 7570,
      "ione": 7571,
      "Ġherself": 7572,
      "ĠWi": 7573,
      "ĠNorthern": 7574,
      "esh": 7575,
      "ĠPrint": 7576,
      "ĠFed": 7577,
      "CD": 7578,
      "born": 7579,
      "ĠWebsite": 7580,
      "Ġunw": 7581,
      "ĠModern": 7582,
      "amps": 7583,
      "ja": 7584,
      "Ġlimits": 7585,
      "reement": 7586,
      "etary": 7587,
      "Ġ37": 7588,
      "lder": 7589,
      "ĠHP": 7590,
      "ags": 7591,
      "bration": 7592,
      "pack": 7593,
      "Ġdoctors": 7594,
      "urse": 7595,
      "Ġscored": 7596,
      "ĠProfessional": 7597,
      "Ġrelative": 7598,
      "Ġrely": 7599,
      "Ġhole": 7600,
      "ĠDisney": 7601,
      "Ġresort": 7602,
      "EA": 7603,
      "Ġexport": 7604,
      "Ġfollows": 7605,
      "Ġtoile": 7606,
      "Ġincident": 7607,
      "Ġsplit": 7608,
      "!)": 7609,
      "ĠOhio": 7610,
      "Ġfactory": 7611,
      "Press": 7612,
      "Ġfru": 7613,
      "Ġpace": 7614,
      "Ġunderst": 7615,
      "ĠSection": 7616,
      "haust": 7617,
      "including": 7618,
      "Ġcovering": 7619,
      "Ġelegant": 7620,
      "Ġchecking": 7621,
      "tes": 7622,
      "ĠNight": 7623,
      "Ġanxiety": 7624,
      "ĠPerform": 7625,
      "Ġfighting": 7626,
      "aints": 7627,
      "Ġliability": 7628,
      "ĠGive": 7629,
      "ĠVideo": 7630,
      "Cl": 7631,
      "Ġsuppliers": 7632,
      "Ġacts": 7633,
      "Ġheads": 7634,
      "Ġbact": 7635,
      "ĠEss": 7636,
      "lly": 7637,
      "Ġgate": 7638,
      "proof": 7639,
      "onto": 7640,
      "amber": 7641,
      "Ġvictory": 7642,
      "ument": 7643,
      "ĠAL": 7644,
      "Ġoutcome": 7645,
      "Ġpra": 7646,
      "ĠFord": 7647,
      "och": 7648,
      "RS": 7649,
      "amental": 7650,
      "riers": 7651,
      "98": 7652,
      "ĠPersonal": 7653,
      "ĠFar": 7654,
      "Ġholidays": 7655,
      "ĠHoly": 7656,
      "Ġdirected": 7657,
      "Ġapproaches": 7658,
      "inch": 7659,
      "Pro": 7660,
      "Ġlicensed": 7661,
      "igate": 7662,
      "aded": 7663,
      "Ġintelligence": 7664,
      "ĠUSB": 7665,
      "Ġauthentic": 7666,
      "ĠProfessor": 7667,
      "ulpt": 7668,
      "Ġexpansion": 7669,
      "Ġshouldn": 7670,
      "Ġdropped": 7671,
      "ĠAndrew": 7672,
      "bel": 7673,
      "atell": 7674,
      "Ġlib": 7675,
      "Ġequival": 7676,
      "Ġphones": 7677,
      "Ġchances": 7678,
      "ĠFrancisco": 7679,
      "Ġcoal": 7680,
      "ĠSales": 7681,
      "ĠQuality": 7682,
      "market": 7683,
      "Ġbeneficial": 7684,
      "Ġposting": 7685,
      "Ġdiagram": 7686,
      "Ġdebut": 7687,
      "Ġstuck": 7688,
      "Ġcrack": 7689,
      "ounter": 7690,
      "Ex": 7691,
      "Ġpossess": 7692,
      "ĠColorado": 7693,
      "'.": 7694,
      "Ġobserved": 7695,
      "eding": 7696,
      "Ġamend": 7697,
      "ĠRoll": 7698,
      "ansas": 7699,
      "ĠRose": 7700,
      "Ġlisting": 7701,
      "cific": 7702,
      "ĠSilver": 7703,
      "cribe": 7704,
      "Ġdrinking": 7705,
      "Ġstorm": 7706,
      "ĠClin": 7707,
      "Ġtracking": 7708,
      "ĠØ": 7709,
      "Ġlect": 7710,
      "Ġtrim": 7711,
      "cons": 7712,
      "acious": 7713,
      "Ġstrict": 7714,
      "Ġelectricity": 7715,
      "ĠAuto": 7716,
      "ĠSummer": 7717,
      "Ġsections": 7718,
      "Ġnarr": 7719,
      "Ġsurprising": 7720,
      "Ġindicate": 7721,
      "ĠProm": 7722,
      "lls": 7723,
      "Ġstable": 7724,
      "ĠLLC": 7725,
      "ĠMembers": 7726,
      "Ġcontainer": 7727,
      "ĠYouTube": 7728,
      "ĠKar": 7729,
      "Ġwalked": 7730,
      "ĠBlo": 7731,
      "Fi": 7732,
      "Ġfunny": 7733,
      "Ð»": 7734,
      "ĠMade": 7735,
      "Ġlaugh": 7736,
      "Ġjewel": 7737,
      "Ġtor": 7738,
      "Ġfib": 7739,
      "Ġtissue": 7740,
      "Ġvenue": 7741,
      "ĠPo": 7742,
      "Ġinstant": 7743,
      "Ġloving": 7744,
      "Ġbone": 7745,
      "Ġocean": 7746,
      "64": 7747,
      "Ġceiling": 7748,
      "Ġcombine": 7749,
      "Ġlawyer": 7750,
      "Ġalumin": 7751,
      "Ġbelieves": 7752,
      "300": 7753,
      "If": 7754,
      "ĠCasino": 7755,
      "Ġspoke": 7756,
      "redit": 7757,
      "AB": 7758,
      "Ġdiseases": 7759,
      "Ġhi": 7760,
      "Ġhopes": 7761,
      "04": 7762,
      "ĠFriend": 7763,
      "Ġchairs": 7764,
      "lled": 7765,
      "ĠPak": 7766,
      "bing": 7767,
      "Ġ65": 7768,
      "Ġbreast": 7769,
      "ĠPS": 7770,
      "Ġlets": 7771,
      "bury": 7772,
      "making": 7773,
      "Ġabuse": 7774,
      "Ġhat": 7775,
      "Ġaircraft": 7776,
      "Ġbare": 7777,
      "ipt": 7778,
      "Ġfunctionality": 7779,
      "Ġinstruction": 7780,
      "ĠWrit": 7781,
      "Ġvolunteers": 7782,
      "ĠAirport": 7783,
      "Ġacceler": 7784,
      "Ġcompensation": 7785,
      "ĠTer": 7786,
      "Ġcenters": 7787,
      "Ġlift": 7788,
      "Ġkil": 7789,
      "ĠNig": 7790,
      "Ġwarranty": 7791,
      "Ġtalks": 7792,
      "aken": 7793,
      "As": 7794,
      "Ġshots": 7795,
      "arters": 7796,
      "Ġcolours": 7797,
      "Ġpanels": 7798,
      "Ġcircuit": 7799,
      "gypt": 7800,
      "ystem": 7801,
      "Ġmodule": 7802,
      "Ġopposite": 7803,
      "Ġtomat": 7804,
      "Ġacquis": 7805,
      "ĠWithout": 7806,
      "Ġadvent": 7807,
      "Ġcorrectly": 7808,
      "lose": 7809,
      "ĠOil": 7810,
      "Ġmm": 7811,
      "Ġforum": 7812,
      "Ġ^": 7813,
      "ĠBang": 7814,
      "iana": 7815,
      "Ġcontained": 7816,
      "Ġcriteria": 7817,
      "remony": 7818,
      "Ġlaptop": 7819,
      "Ġinsert": 7820,
      "Ġsubjects": 7821,
      "Ġpurs": 7822,
      "Ġnecessarily": 7823,
      "Ġzero": 7824,
      "ĠJones": 7825,
      "anes": 7826,
      "Ġnuclear": 7827,
      "ĠAff": 7828,
      "Ġskilled": 7829,
      "Ġflexibility": 7830,
      "Ġcontaining": 7831,
      "athy": 7832,
      "Ġtransactions": 7833,
      "Ġtraveling": 7834,
      "Ġeverywhere": 7835,
      "Ġmatches": 7836,
      "Ġpermission": 7837,
      "mo": 7838,
      "Ġram": 7839,
      "ĠSpace": 7840,
      "Ġpolitics": 7841,
      "Ġproposal": 7842,
      "Ġspots": 7843,
      "!!!!": 7844,
      "ĠBased": 7845,
      "rated": 7846,
      "Ġvert": 7847,
      "ĠStudies": 7848,
      "abetes": 7849,
      "Ġconvert": 7850,
      "Ġobjective": 7851,
      "ĠHun": 7852,
      "ĠMountain": 7853,
      "Ġorganisation": 7854,
      "Ġempty": 7855,
      "Ġlesson": 7856,
      "Ġtrips": 7857,
      "eah": 7858,
      "izza": 7859,
      "Ġparticipation": 7860,
      "rible": 7861,
      "Ġrecover": 7862,
      "Ġneighb": 7863,
      "eras": 7864,
      "olid": 7865,
      "Ġfits": 7866,
      "Ġexposed": 7867,
      "Ġcomplicated": 7868,
      "gorith": 7869,
      "Ġrequested": 7870,
      "Ġspray": 7871,
      "Ġtill": 7872,
      "ĠCharles": 7873,
      "ERS": 7874,
      "Ġforecast": 7875,
      "Ġutility": 7876,
      "Ġunus": 7877,
      "Ġinvolving": 7878,
      "Ġretirement": 7879,
      "ĠJewish": 7880,
      "Ġresponses": 7881,
      "elly": 7882,
      "dri": 7883,
      "Ġmarked": 7884,
      "onym": 7885,
      "aze": 7886,
      "ds": 7887,
      "Ġanyway": 7888,
      "Ġlegislation": 7889,
      "Ġentrance": 7890,
      "ĠJackson": 7891,
      "coin": 7892,
      "Ġalt": 7893,
      "bits": 7894,
      "Ġlayout": 7895,
      "Ġspecified": 7896,
      "Ġstages": 7897,
      "ĠKingdom": 7898,
      "Ġhosted": 7899,
      "ĠSingapore": 7900,
      "Ġemails": 7901,
      "Ġcarrying": 7902,
      "ĠPen": 7903,
      "Ġcharacteristics": 7904,
      "Ġstaying": 7905,
      "rick": 7906,
      "Ġterrit": 7907,
      "Ġfinest": 7908,
      "Ġdetect": 7909,
      "ĠStat": 7910,
      "Ġliterature": 7911,
      "Ġhurt": 7912,
      "Ġbuff": 7913,
      "Ġencouraged": 7914,
      "ĠWalk": 7915,
      "ĠLink": 7916,
      "Ġoblig": 7917,
      "Ġrural": 7918,
      "ributes": 7919,
      "pending": 7920,
      "ĠPop": 7921,
      "Com": 7922,
      "Ġexpressed": 7923,
      "Ġphr": 7924,
      "Ġcertification": 7925,
      "liament": 7926,
      "Ġautomatic": 7927,
      "Ġleague": 7928,
      "Ġinteractive": 7929,
      "asure": 7930,
      "lers": 7931,
      "ĠEveryone": 7932,
      "ership": 7933,
      "Ġenroll": 7934,
      "Ġrespectively": 7935,
      "Ġdemands": 7936,
      "Ġimprovements": 7937,
      "flow": 7938,
      "ĠRam": 7939,
      "Ġyours": 7940,
      "ĠFre": 7941,
      "Ġattach": 7942,
      "Ġadequ": 7943,
      "Ġmood": 7944,
      "Ġfilling": 7945,
      "Ġgreatly": 7946,
      "ĠVisit": 7947,
      "Ġexplan": 7948,
      "page": 7949,
      "Ġfalse": 7950,
      "CO": 7951,
      "Ġtagged": 7952,
      "08": 7953,
      "press": 7954,
      "Ġcouncil": 7955,
      "Ġassociation": 7956,
      "Ġoccurs": 7957,
      "Ġpersonality": 7958,
      "ĠWilliams": 7959,
      "Ġlens": 7960,
      "Ġemployer": 7961,
      "AY": 7962,
      "ĠRun": 7963,
      "iances": 7964,
      "ĠResp": 7965,
      "Ġasset": 7966,
      "Ġdrinks": 7967,
      "Ġdamaged": 7968,
      "ĠHeart": 7969,
      "holder": 7970,
      "inity": 7971,
      "Ġrepairs": 7972,
      "anted": 7973,
      "Ġpride": 7974,
      "Ġstir": 7975,
      "Ġunexpected": 7976,
      "Ġpitch": 7977,
      "What": 7978,
      "Ġdebate": 7979,
      "Ġreaction": 7980,
      "ĠConnect": 7981,
      "Ġintellect": 7982,
      "Ġdivision": 7983,
      "lyn": 7984,
      "iki": 7985,
      "ĠAutom": 7986,
      "ckets": 7987,
      "ĠProduct": 7988,
      "ĠDivision": 7989,
      "ĠKim": 7990,
      "Ġmaintained": 7991,
      "68": 7992,
      "Ġaccordance": 7993,
      "Ġvintage": 7994,
      "Ġdecent": 7995,
      "Ġdesigners": 7996,
      "iler": 7997,
      "Ġpocket": 7998,
      "Ġlake": 7999,
      "Ġtum": 8000,
      "Ġfest": 8001,
      "Ġargument": 8002,
      "cut": 8003,
      "ificial": 8004,
      "ĠVi": 8005,
      "Ġtone": 8006,
      "Ġbaking": 8007,
      "ĠGeorgia": 8008,
      "odge": 8009,
      "ĠBrazil": 8010,
      "ĠBa": 8011,
      "Ġliterally": 8012,
      "Ġneut": 8013,
      "Ġlargely": 8014,
      "Ġcoat": 8015,
      "Ġcertificate": 8016,
      "ĠCB": 8017,
      "Ġdelivering": 8018,
      "Ġassume": 8019,
      "Ġfindings": 8020,
      "Ġyards": 8021,
      "Ġaccommodation": 8022,
      "Is": 8023,
      "Ġ34": 8024,
      "rect": 8025,
      "ìĿ": 8026,
      "ĠCult": 8027,
      "Ġwave": 8028,
      "Ġsail": 8029,
      "tains": 8030,
      "ashed": 8031,
      "Ġborrow": 8032,
      "Ġera": 8033,
      "Ġguaranteed": 8034,
      "Ġimplemented": 8035,
      "Ġratio": 8036,
      "97": 8037,
      "Ġroads": 8038,
      "Ġobviously": 8039,
      "Ġpreparing": 8040,
      "Ġque": 8041,
      "ĠDVD": 8042,
      "ateful": 8043,
      "Ġinitiative": 8044,
      "Ġspeaker": 8045,
      "earing": 8046,
      "ĠMat": 8047,
      "Ġfocuses": 8048,
      "ĠFollowing": 8049,
      "uis": 8050,
      "Ġham": 8051,
      "Ġcomputers": 8052,
      "Ġdrawn": 8053,
      "ĠLearning": 8054,
      "ĠSpain": 8055,
      "FC": 8056,
      "ĠArmy": 8057,
      "teen": 8058,
      "raid": 8059,
      "ila": 8060,
      "Ġtelephone": 8061,
      "ĠJac": 8062,
      "ĠSus": 8063,
      "Ġvessel": 8064,
      "asting": 8065,
      "igent": 8066,
      "rame": 8067,
      "ĠMs": 8068,
      "iti": 8069,
      "Ġsex": 8070,
      "Ġlifetime": 8071,
      "ĠChoose": 8072,
      "Ġtox": 8073,
      "Ġrecruit": 8074,
      "ĠWr": 8075,
      "Ġscientists": 8076,
      "ĠSteel": 8077,
      "Ġmeets": 8078,
      "ĠEgypt": 8079,
      "Ġpublication": 8080,
      "Ġfaces": 8081,
      "Ġgaming": 8082,
      "Ġstronger": 8083,
      "Ġphotographs": 8084,
      "ĠConc": 8085,
      "ĠBrand": 8086,
      "quis": 8087,
      "Ġconvenience": 8088,
      "ĠCustomer": 8089,
      "ĠBes": 8090,
      "Ġexplains": 8091,
      "ults": 8092,
      "ials": 8093,
      "EG": 8094,
      "ĠQueen": 8095,
      "AV": 8096,
      "ologist": 8097,
      "ĠFL": 8098,
      "ugs": 8099,
      "Ġscores": 8100,
      "Ġstudying": 8101,
      "Ġgentle": 8102,
      "ĠCON": 8103,
      "ĠProcess": 8104,
      "fall": 8105,
      "Ġsecondary": 8106,
      "Ġbid": 8107,
      "vironments": 8108,
      "rage": 8109,
      "Ġlies": 8110,
      "ĠMachine": 8111,
      "ali": 8112,
      "Ġoccurred": 8113,
      "ĠLy": 8114,
      "Ġspark": 8115,
      "ĠContin": 8116,
      "Ġclock": 8117,
      "Ġpul": 8118,
      "Ġscrew": 8119,
      "Ġ1990": 8120,
      "Ġhydro": 8121,
      "Ġyoga": 8122,
      "Ġspectac": 8123,
      "ppy": 8124,
      "erving": 8125,
      "Ġobst": 8126,
      "Ġaddresses": 8127,
      "ĠExam": 8128,
      "Ġpulled": 8129,
      "Ġtwenty": 8130,
      "Ġjuice": 8131,
      "ĠBit": 8132,
      "Ġsatisfied": 8133,
      "Ġexistence": 8134,
      "Ġtransmission": 8135,
      "Ġmac": 8136,
      "Ġseeds": 8137,
      "Ġgym": 8138,
      "ĠStone": 8139,
      "Ġaims": 8140,
      "Ġalarm": 8141,
      "ruption": 8142,
      "ugg": 8143,
      "67": 8144,
      "ĠEmploy": 8145,
      "RL": 8146,
      "Ġspeakers": 8147,
      "being": 8148,
      "Ġdowntown": 8149,
      "ĠEll": 8150,
      "Ġengaging": 8151,
      "Ġconfiguration": 8152,
      "ĠDaniel": 8153,
      "ĠSafety": 8154,
      "Ġexhaust": 8155,
      "ĠDO": 8156,
      "Ġrepresentative": 8157,
      "itches": 8158,
      "ĠDar": 8159,
      "ĠAsian": 8160,
      "Ġbrilliant": 8161,
      "Ġinteraction": 8162,
      "Ġbills": 8163,
      "ĠSher": 8164,
      "Ġ1999": 8165,
      "ĠTele": 8166,
      "ĠÂ©": 8167,
      "Ġentering": 8168,
      "roke": 8169,
      "that": 8170,
      "po": 8171,
      "Ġcomplim": 8172,
      "Ġfundamental": 8173,
      "Ġlowest": 8174,
      "Ġfrequency": 8175,
      "ĠImage": 8176,
      "Ġgained": 8177,
      "Ġfinds": 8178,
      "ĠMah": 8179,
      "Ġrevolution": 8180,
      "isms": 8181,
      "Ġcock": 8182,
      "ĠMedicine": 8183,
      "Ġconscious": 8184,
      "ĠEvent": 8185,
      "Ġclosing": 8186,
      "ĠInterest": 8187,
      "Ġnights": 8188,
      "Ġengines": 8189,
      "ĠFurthermore": 8190,
      "una": 8191,
      "ĠDrive": 8192,
      "Ġstainless": 8193,
      "An": 8194,
      "Ġfocusing": 8195,
      "Ġtro": 8196,
      "inet": 8197,
      "Ġgap": 8198,
      "ĠCloud": 8199,
      "rieved": 8200,
      "amsung": 8201,
      "Ðº": 8202,
      "riculum": 8203,
      "Ġski": 8204,
      "Ġbab": 8205,
      "Ġrecre": 8206,
      "ĠTool": 8207,
      "Ġcolleagues": 8208,
      "Ġsuffe": 8209,
      "ESS": 8210,
      "ĠMuslim": 8211,
      "Ġforgot": 8212,
      "ĠFac": 8213,
      "tense": 8214,
      "Ġrepeated": 8215,
      "Ġgranted": 8216,
      "Ġgod": 8217,
      "Ġvolunteer": 8218,
      "otal": 8219,
      "ĠAgreement": 8220,
      "Ġcabinet": 8221,
      "Ġacting": 8222,
      "ĠCopy": 8223,
      "Ġorange": 8224,
      "ĠDog": 8225,
      "uct": 8226,
      "Ġisol": 8227,
      "Ġrepresented": 8228,
      "Ġpounds": 8229,
      "unicip": 8230,
      "anna": 8231,
      "Ġcompletion": 8232,
      "Ġdurable": 8233,
      "Ġstrongly": 8234,
      "orce": 8235,
      "Ġdollar": 8236,
      "Ġtalked": 8237,
      "Ġvisits": 8238,
      "Ġrecyc": 8239,
      "agen": 8240,
      "Ġmattress": 8241,
      "Ġelectron": 8242,
      "Ġfraud": 8243,
      "ĠFact": 8244,
      "Ġadvantages": 8245,
      "Ġconcert": 8246,
      "Ġindu": 8247,
      "ĠLeg": 8248,
      "Ġexploring": 8249,
      "ĠTal": 8250,
      "03": 8251,
      "sis": 8252,
      "char": 8253,
      "Ġscope": 8254,
      "ĠSM": 8255,
      "02": 8256,
      "Ġstations": 8257,
      "uma": 8258,
      "iour": 8259,
      "69": 8260,
      "atile": 8261,
      "Ġintroduce": 8262,
      "Ġmole": 8263,
      "Ġchecked": 8264,
      "ĠStock": 8265,
      "ĠHT": 8266,
      "Ġinvestments": 8267,
      "ĠSci": 8268,
      "Ġworkshops": 8269,
      "brid": 8270,
      "ĠFather": 8271,
      "ĠHold": 8272,
      "imal": 8273,
      "ĠSenior": 8274,
      "Ġpacked": 8275,
      "ĠSav": 8276,
      "Con": 8277,
      "Ġbroadcast": 8278,
      "Ġplot": 8279,
      "Ġprovision": 8280,
      "ampion": 8281,
      "Ġaccuracy": 8282,
      "Ġdeeper": 8283,
      "Ġhyper": 8284,
      "Ġrefresh": 8285,
      "Ġfloors": 8286,
      "ĠDI": 8287,
      "ĠPrime": 8288,
      "Ġlanguages": 8289,
      "ĠGuys": 8290,
      "BM": 8291,
      "days": 8292,
      "Ġsegment": 8293,
      "ĠRay": 8294,
      "Ġpersonnel": 8295,
      "Ġsofa": 8296,
      "ĠThink": 8297,
      "Ġentitled": 8298,
      "ilipp": 8299,
      "oices": 8300,
      "ollywood": 8301,
      "ĠRights": 8302,
      "Ġequivalent": 8303,
      "Ġtemporary": 8304,
      "Ġrising": 8305,
      "ĠCru": 8306,
      "Ġcontribution": 8307,
      "Ġdemonstrate": 8308,
      "Ġrapidly": 8309,
      "Ġassigned": 8310,
      "Ġestimate": 8311,
      "Ġcreativity": 8312,
      "Ġlie": 8313,
      "Ġtexture": 8314,
      "ĠAwards": 8315,
      "Ġenvironments": 8316,
      "Ġwarn": 8317,
      "Ġcotton": 8318,
      "ĠMoreover": 8319,
      "ĠCountry": 8320,
      "utter": 8321,
      "Ġpad": 8322,
      "Ġtutorial": 8323,
      "ucky": 8324,
      "Ġdrain": 8325,
      "Ġremained": 8326,
      "Ġalive": 8327,
      "Ġflying": 8328,
      "Ġarrival": 8329,
      "09": 8330,
      "ĠSE": 8331,
      "cm": 8332,
      "riger": 8333,
      "Ġtape": 8334,
      "Ġranking": 8335,
      "Ġresidence": 8336,
      "Ġopens": 8337,
      "oned": 8338,
      "Ġhes": 8339,
      "07": 8340,
      "ĠJoseph": 8341,
      "ĠBan": 8342,
      "Ġreact": 8343,
      "Ġvisitor": 8344,
      "Ġorient": 8345,
      "Ġalter": 8346,
      "uing": 8347,
      "Ġuncom": 8348,
      "Ġalgorith": 8349,
      "ĠWordPress": 8350,
      "ĠHas": 8351,
      "Ġpackaging": 8352,
      "Ġlayers": 8353,
      "Ġhasn": 8354,
      "ifully": 8355,
      "Ġceremony": 8356,
      "ĠStation": 8357,
      "ĠCatholic": 8358,
      "Ġmirror": 8359,
      "ĠLimited": 8360,
      "igen": 8361,
      "ĠOK": 8362,
      "Ġclicking": 8363,
      "Ġgiant": 8364,
      "Ġaccounting": 8365,
      "Ġattending": 8366,
      "Ġhel": 8367,
      "ĠSale": 8368,
      "Ġtemperatures": 8369,
      "Ġstudied": 8370,
      "RC": 8371,
      "wan": 8372,
      "ĠWant": 8373,
      "ĠBritain": 8374,
      "onder": 8375,
      "Ġfinger": 8376,
      "Ġintense": 8377,
      "osc": 8378,
      "Ġhoriz": 8379,
      "ĠBE": 8380,
      "Ġharder": 8381,
      "itate": 8382,
      "Ġdism": 8383,
      "Ġbranch": 8384,
      "ĠNatural": 8385,
      "Ġkeyword": 8386,
      "Ġprayer": 8387,
      "charge": 8388,
      "rooms": 8389,
      "ĠPolicy": 8390,
      "Ġboot": 8391,
      "Ġdefine": 8392,
      "Ġhook": 8393,
      "mers": 8394,
      "Ġprotocol": 8395,
      "Ġcomprom": 8396,
      "Ġwaters": 8397,
      "Ġfalling": 8398,
      "Ġafraid": 8399,
      "ĠSwed": 8400,
      "ifting": 8401,
      "Ġdad": 8402,
      "ĠKent": 8403,
      "Ġinitially": 8404,
      "ĠSimply": 8405,
      "Ġreprodu": 8406,
      "ĠHou": 8407,
      "Ġinventory": 8408,
      "Ġenthusi": 8409,
      "%,": 8410,
      "sts": 8411,
      "Ġstrange": 8412,
      "itis": 8413,
      "uous": 8414,
      "Ġresid": 8415,
      "ĠTay": 8416,
      "Ġheaded": 8417,
      "Ġ120": 8418,
      "TER": 8419,
      "ĠUr": 8420,
      "Ġservers": 8421,
      "Ġdrag": 8422,
      "ĠLA": 8423,
      "ĠPhoto": 8424,
      "lections": 8425,
      "ĠKorea": 8426,
      "Ġfaced": 8427,
      "Ġunderstood": 8428,
      "ĠCommon": 8429,
      "Ġanymore": 8430,
      "Ġcelebration": 8431,
      "Ġflooring": 8432,
      "Ġtact": 8433,
      "Ġreaching": 8434,
      "Ġcurrency": 8435,
      "GA": 8436,
      "Ġstatistics": 8437,
      "Ġmit": 8438,
      "Ġ42": 8439,
      "ĠModel": 8440,
      "Ġprize": 8441,
      "ĠEasy": 8442,
      "ĠSup": 8443,
      "Pl": 8444,
      "Ġgene": 8445,
      "ĠAsk": 8446,
      "Ġheading": 8447,
      "Ġtherap": 8448,
      "ĠSave": 8449,
      "Ġloyal": 8450,
      "Ġ39": 8451,
      "800": 8452,
      "Ġscreens": 8453,
      "Ġriding": 8454,
      "criptions": 8455,
      "Ġhaz": 8456,
      "Ġmg": 8457,
      "Ġacquired": 8458,
      "Ġloose": 8459,
      "VER": 8460,
      "Ġhomeown": 8461,
      "heast": 8462,
      "Ġobjectives": 8463,
      "Ġthemes": 8464,
      "ĠAdministration": 8465,
      "cal": 8466,
      "ĠKh": 8467,
      "eping": 8468,
      "bell": 8469,
      "ĠSecretary": 8470,
      "cor": 8471,
      "ensus": 8472,
      "Ġpromotion": 8473,
      "Ġpainted": 8474,
      "Ġappointed": 8475,
      "foot": 8476,
      "ĠDue": 8477,
      "ĠField": 8478,
      "Ġmaps": 8479,
      "Ġdiversity": 8480,
      "ĠLind": 8481,
      "zed": 8482,
      "Ġhate": 8483,
      "Ġdual": 8484,
      "olit": 8485,
      "Ġsuffer": 8486,
      "ĠFoot": 8487,
      "Ġboards": 8488,
      "ĠEX": 8489,
      "adium": 8490,
      "mble": 8491,
      "ĠLas": 8492,
      "ĠAgency": 8493,
      "otive": 8494,
      "Ġfarmers": 8495,
      "Ġcontracts": 8496,
      "Ġcush": 8497,
      "inyl": 8498,
      "ĠProducts": 8499,
      "ĠAmong": 8500,
      "ĠWorking": 8501,
      "Ġbrush": 8502,
      "Ġtile": 8503,
      "Ġequally": 8504,
      "Ġsurve": 8505,
      "ĠLabor": 8506,
      "Ġconsent": 8507,
      "Ġquotes": 8508,
      "Ġlaid": 8509,
      "Ġunknown": 8510,
      "PM": 8511,
      "Ġbreaking": 8512,
      "Ġensures": 8513,
      "ervations": 8514,
      "Ġsensor": 8515,
      "ĠBelow": 8516,
      "Ġsubstantial": 8517,
      "lude": 8518,
      "Ġhoney": 8519,
      "UL": 8520,
      "Ġinitiatives": 8521,
      "ĠLi": 8522,
      "Ġhits": 8523,
      "ĠPrivate": 8524,
      "Ġpatio": 8525,
      "ĠGallery": 8526,
      "ĠBase": 8527,
      "Ġpubl": 8528,
      "ĠIrish": 8529,
      "Ġperiods": 8530,
      "Ġcontinuous": 8531,
      "Ġwithdraw": 8532,
      "Ġwanting": 8533,
      "ĠRegard": 8534,
      "ĠEverything": 8535,
      "Ġillegal": 8536,
      "Ġneither": 8537,
      "Ġviewing": 8538,
      "06": 8539,
      "Ġpeak": 8540,
      "ĠTreat": 8541,
      "ĠCorporation": 8542,
      "ĠOx": 8543,
      "hyd": 8544,
      "Ġplane": 8545,
      "ĠToronto": 8546,
      "icket": 8547,
      "Ġadopted": 8548,
      "Ġfing": 8549,
      "ĠWas": 8550,
      "Ġending": 8551,
      "Ġassembly": 8552,
      "Ġdisplays": 8553,
      "ĠNic": 8554,
      "Ġinsights": 8555,
      "Ġparticipating": 8556,
      "Ġstability": 8557,
      "ĠCT": 8558,
      "ĠCapital": 8559,
      "Ġconsequences": 8560,
      "dney": 8561,
      "ey": 8562,
      "Ġpp": 8563,
      "Ġcameras": 8564,
      "ĠIra": 8565,
      "Ġhanging": 8566,
      "Ġutilize": 8567,
      "gi": 8568,
      "rat": 8569,
      "print": 8570,
      "DP": 8571,
      "ĠIce": 8572,
      "Ġtired": 8573,
      "isdom": 8574,
      "ĠOak": 8575,
      "Ġpig": 8576,
      "chester": 8577,
      "FA": 8578,
      "Ġsignature": 8579,
      "Ġdocumentation": 8580,
      "isa": 8581,
      "wear": 8582,
      "Ġorganisations": 8583,
      "books": 8584,
      "ĠPrev": 8585,
      "Ġreturning": 8586,
      "ĠStandard": 8587,
      "Ġkeys": 8588,
      "Ġcasual": 8589,
      "Ġoperated": 8590,
      "ulator": 8591,
      "star": 8592,
      "Ġflights": 8593,
      "ĠCand": 8594,
      "step": 8595,
      "ĠConsult": 8596,
      "ceived": 8597,
      "Ar": 8598,
      "onso": 8599,
      "Ġdesktop": 8600,
      "ĠMrs": 8601,
      "annel": 8602,
      "ILL": 8603,
      "Ġwise": 8604,
      "iac": 8605,
      "Ġlaser": 8606,
      "Ġchronic": 8607,
      "eto": 8608,
      "icious": 8609,
      "Ġclaimed": 8610,
      "athered": 8611,
      "anned": 8612,
      "Ġsculpt": 8613,
      "Ġdepression": 8614,
      "ĠCS": 8615,
      "letter": 8616,
      "Ġcontributions": 8617,
      "Ġmountains": 8618,
      "ĠFall": 8619,
      "Ġcalm": 8620,
      "onic": 8621,
      "ĠViet": 8622,
      "ĠRos": 8623,
      "igned": 8624,
      "htt": 8625,
      "inois": 8626,
      "Le": 8627,
      "ludes": 8628,
      "acc": 8629,
      "ĠGreek": 8630,
      "Ġtons": 8631,
      "ĠJustice": 8632,
      "Ġchildhood": 8633,
      "ih": 8634,
      "Ġdeeply": 8635,
      "ĠPu": 8636,
      "ĠDun": 8637,
      "Ġplain": 8638,
      "Ġconventional": 8639,
      "Ġindicated": 8640,
      "Ġdirections": 8641,
      "Ġinstitution": 8642,
      "Ġescape": 8643,
      "eties": 8644,
      "Ġevolution": 8645,
      "oof": 8646,
      "2018": 8647,
      "Ġexists": 8648,
      "looking": 8649,
      "Ġproductivity": 8650,
      "Ġsought": 8651,
      "ĠAnnual": 8652,
      "Ġstylish": 8653,
      "aters": 8654,
      "Ġphenomen": 8655,
      "ĠÙ": 8656,
      "zona": 8657,
      "owers": 8658,
      "ĠSenate": 8659,
      "Ġtrusted": 8660,
      "Ġseam": 8661,
      "Ġasp": 8662,
      "ĠCro": 8663,
      "ĠAvailable": 8664,
      "Ġhiring": 8665,
      "Ġintention": 8666,
      "Ġbedrooms": 8667,
      "Ġlatter": 8668,
      "tical": 8669,
      "Ġconversion": 8670,
      "vo": 8671,
      "Ġbunch": 8672,
      "encing": 8673,
      "Ġreveal": 8674,
      "ĠStudio": 8675,
      "sole": 8676,
      "Ġcul": 8677,
      "ĠJenn": 8678,
      "Ġ64": 8679,
      "ĠEastern": 8680,
      "Ġpromoting": 8681,
      "mercial": 8682,
      "Ġgrace": 8683,
      "ĠForest": 8684,
      "Ġchampions": 8685,
      "Ġtie": 8686,
      "ador": 8687,
      "Ġimportantly": 8688,
      "Ġsemi": 8689,
      "âĢ³": 8690,
      "Ġ1998": 8691,
      "ĠEmer": 8692,
      "ĠInstall": 8693,
      "ĠVegas": 8694,
      "ĠALL": 8695,
      "Ġinvite": 8696,
      "Ġholes": 8697,
      "Ġknock": 8698,
      "Ġgraphic": 8699,
      "Ġwondering": 8700,
      "ĠEN": 8701,
      "Ġindoor": 8702,
      "Ġrelation": 8703,
      "ashes": 8704,
      "ĠMD": 8705,
      "Ġsouthern": 8706,
      "Ġax": 8707,
      "Ġconvey": 8708,
      "Ġacquire": 8709,
      "ĠCreek": 8710,
      "ĠCut": 8711,
      "Ġmedication": 8712,
      "Ġhub": 8713,
      "Ġsafely": 8714,
      "Ġcuts": 8715,
      "Ġtournament": 8716,
      "Ġamen": 8717,
      "Ġinjured": 8718,
      "ĠKids": 8719,
      "ĠPur": 8720,
      "Ġwatched": 8721,
      "ĠNO": 8722,
      "Ġoverse": 8723,
      "war": 8724,
      "ĠDNA": 8725,
      "ĠMess": 8726,
      "ji": 8727,
      "ĠMap": 8728,
      "ĠExcell": 8729,
      "wall": 8730,
      "ĠTR": 8731,
      "uten": 8732,
      "Ġtemplates": 8733,
      "Ġmistakes": 8734,
      "Ġpassionate": 8735,
      "ĠKat": 8736,
      "Ġperformances": 8737,
      "tery": 8738,
      "racy": 8739,
      "ko": 8740,
      "Ġedit": 8741,
      "Ġownership": 8742,
      "Ġlip": 8743,
      "ĠAvenue": 8744,
      "ĠAh": 8745,
      "PN": 8746,
      "ĠMother": 8747,
      "tail": 8748,
      "sen": 8749,
      "ĠForce": 8750,
      "Ġ1000": 8751,
      "rif": 8752,
      "Ġphilosophy": 8753,
      "Ġemotions": 8754,
      "ĠShare": 8755,
      "Ġpermit": 8756,
      "acon": 8757,
      "Ġportable": 8758,
      "zzle": 8759,
      "ĠSamsung": 8760,
      "ĠCN": 8761,
      "Ġdistributed": 8762,
      "Ġattitude": 8763,
      "Ġgram": 8764,
      "Ġfrustr": 8765,
      "Ġspecialists": 8766,
      "Ġrelating": 8767,
      "atellite": 8768,
      "Ġaer": 8769,
      "iders": 8770,
      "Ġsink": 8771,
      "Ġpepper": 8772,
      "Ġvolt": 8773,
      "gments": 8774,
      "ĠStan": 8775,
      "limited": 8776,
      "rad": 8777,
      "Ġrubber": 8778,
      "Ġadj": 8779,
      "Ġ250": 8780,
      "Ġemployed": 8781,
      "aya": 8782,
      "ĠBroad": 8783,
      "Ġamongst": 8784,
      "ĠRequ": 8785,
      "Ġabilities": 8786,
      "ĠPict": 8787,
      "ĠMotor": 8788,
      "ĠCou": 8789,
      "Ġcampaigns": 8790,
      "Ġ95": 8791,
      "Ġbat": 8792,
      "alysis": 8793,
      "Ġdil": 8794,
      "Ġouts": 8795,
      "ho": 8796,
      "Ġemployers": 8797,
      "izz": 8798,
      "ped": 8799,
      "Ġreception": 8800,
      "fits": 8801,
      "Ġnetworking": 8802,
      "Ġweren": 8803,
      "ormal": 8804,
      "ĠRs": 8805,
      "Ġdecrease": 8806,
      "Ġweapons": 8807,
      "ĠPlant": 8808,
      "Ġpollut": 8809,
      "Ġcatalog": 8810,
      "Ġantib": 8811,
      "Ġreligion": 8812,
      "Ġinspection": 8813,
      "abil": 8814,
      "oted": 8815,
      "Ġsubsid": 8816,
      "Ġfalls": 8817,
      "Ġemerging": 8818,
      "Ġevaluate": 8819,
      "iary": 8820,
      "ĠLat": 8821,
      "produ": 8822,
      "CS": 8823,
      "Ġprofessor": 8824,
      "Ġsuite": 8825,
      "ifier": 8826,
      "plate": 8827,
      "Ġraising": 8828,
      "aka": 8829,
      "ĠStrateg": 8830,
      "Ġputs": 8831,
      "ĠCapt": 8832,
      "Ġmath": 8833,
      "Ġventure": 8834,
      "Ġsmartphone": 8835,
      "Ġspa": 8836,
      "Ġencounter": 8837,
      "Ġalloc": 8838,
      "ĠRom": 8839,
      "ĠManufact": 8840,
      "ĠWithin": 8841,
      "Ġracing": 8842,
      "Ġsees": 8843,
      "Ġcoaching": 8844,
      "Ġconsistently": 8845,
      "ĠStudent": 8846,
      "Ġranging": 8847,
      "Ġdeveloper": 8848,
      "Ġwheels": 8849,
      "Ġbeds": 8850,
      "ĠSat": 8851,
      "cycle": 8852,
      "Ġtrib": 8853,
      "power": 8854,
      "Ġinstruments": 8855,
      "Ġintellectual": 8856,
      "Ġrespective": 8857,
      "adel": 8858,
      "Ġaccommodate": 8859,
      "Ġfranch": 8860,
      "ĠSquare": 8861,
      "ĠRub": 8862,
      "ĠRadio": 8863,
      "Ġcontents": 8864,
      "burgh": 8865,
      "Ġbuyer": 8866,
      "Ġcopyright": 8867,
      "Ġenforcement": 8868,
      "Ġworkplace": 8869,
      "Ġgran": 8870,
      "wich": 8871,
      "Ġimper": 8872,
      "ĠPsych": 8873,
      "umer": 8874,
      "ĠMinistry": 8875,
      "sell": 8876,
      "orous": 8877,
      "ĠVen": 8878,
      "Ġgolden": 8879,
      "Ġtalented": 8880,
      "Ġgrateful": 8881,
      "ĠBridge": 8882,
      "Ġsubm": 8883,
      "ĠMix": 8884,
      "ĠUser": 8885,
      "ipes": 8886,
      "Ġcorn": 8887,
      "ĠRod": 8888,
      "Ġcrypt": 8889,
      "Ġunusual": 8890,
      "Ġmild": 8891,
      "ĠGro": 8892,
      "HA": 8893,
      "Ġeliminate": 8894,
      "ĠDecor": 8895,
      "Ġcoloring": 8896,
      "ambling": 8897,
      "vania": 8898,
      "Ġcontractors": 8899,
      "Ġdamages": 8900,
      "ĠâĢĭ": 8901,
      "Ġfabulous": 8902,
      "olis": 8903,
      "ĠSem": 8904,
      "umni": 8905,
      "Ġshirt": 8906,
      "oding": 8907,
      "Ġappl": 8908,
      "ĠSydney": 8909,
      "ĠPerfect": 8910,
      "Ġtitles": 8911,
      "ĠCreate": 8912,
      "lace": 8913,
      "Ġcompact": 8914,
      "employ": 8915,
      "400": 8916,
      "ĠIraq": 8917,
      "itu": 8918,
      "cribed": 8919,
      "Ġmerely": 8920,
      "ĠFa": 8921,
      "Ġanniversary": 8922,
      "theless": 8923,
      "Ġalleged": 8924,
      "Ġheaven": 8925,
      "Ġsmoke": 8926,
      "Ġdirectory": 8927,
      "ĠIllinois": 8928,
      "Ġwins": 8929,
      "Ġstack": 8930,
      "ĠShort": 8931,
      "QL": 8932,
      "Ġtargeted": 8933,
      "Ġequity": 8934,
      "urities": 8935,
      "Ġmeasured": 8936,
      "ĠCry": 8937,
      "Ġinvesting": 8938,
      "Ġsupplier": 8939,
      "ĠUk": 8940,
      "bro": 8941,
      "Ġhung": 8942,
      "ports": 8943,
      "aska": 8944,
      "etch": 8945,
      "Ġpossibilities": 8946,
      "Ġjewelry": 8947,
      "59": 8948,
      "Ġapplies": 8949,
      "ĠArizona": 8950,
      "Ġformula": 8951,
      "Ġtrash": 8952,
      "Ġrepresentatives": 8953,
      "Ġregulatory": 8954,
      "TP": 8955,
      "Ġleaf": 8956,
      "makers": 8957,
      "Ġgender": 8958,
      "ðŁ": 8959,
      "urious": 8960,
      "Ġcomplement": 8961,
      "umbing": 8962,
      "Ġcomposition": 8963,
      "ĠPrior": 8964,
      "Ġinfection": 8965,
      "ĠRyan": 8966,
      "Ġoral": 8967,
      "sized": 8968,
      "Ġmechanism": 8969,
      "bow": 8970,
      "Ġabroad": 8971,
      "ĠOfficer": 8972,
      "Ġthousand": 8973,
      "UM": 8974,
      "swe": 8975,
      "ĠLevel": 8976,
      "ĠEth": 8977,
      "Ġdrives": 8978,
      "ĠSD": 8979,
      "ĠVillage": 8980,
      "hour": 8981,
      "run": 8982,
      "inton": 8983,
      "abeth": 8984,
      "ĠCL": 8985,
      "vals": 8986,
      "Ġseasons": 8987,
      "Ġtu": 8988,
      "Ġmistake": 8989,
      "Ġhack": 8990,
      "stein": 8991,
      "Ġuncertain": 8992,
      ".;": 8993,
      "Ġhighlights": 8994,
      "aza": 8995,
      "Ġresolve": 8996,
      "Ġbull": 8997,
      "ĠMeanwhile": 8998,
      "Ġsen": 8999,
      "kel": 9000,
      "Ġreject": 9001,
      "TR": 9002,
      "Ġshed": 9003,
      "Ġwarning": 9004,
      "Ġessentially": 9005,
      "ĠChem": 9006,
      "ĠGolden": 9007,
      "ĠCli": 9008,
      "Ġprime": 9009,
      "Ġprivile": 9010,
      "Ġsolo": 9011,
      "ĠRegist": 9012,
      "Ġreserved": 9013,
      "Ġcm": 9014,
      "Ġstrike": 9015,
      "ĠBM": 9016,
      "Ġdesigning": 9017,
      "Ġbold": 9018,
      "Ġlegend": 9019,
      "pled": 9020,
      "Ġshapes": 9021,
      "ĠAnaly": 9022,
      "axy": 9023,
      "Ġelected": 9024,
      "Ġshoulder": 9025,
      "Ġcann": 9026,
      "Ġresident": 9027,
      "ffective": 9028,
      "Ġnutri": 9029,
      "Ġscenes": 9030,
      "Ġexterior": 9031,
      "isticated": 9032,
      "Ġsour": 9033,
      "ounge": 9034,
      "Ġspectacular": 9035,
      "Ġ1980": 9036,
      "ĠBlu": 9037,
      "Ġabund": 9038,
      "ĠTech": 9039,
      "57": 9040,
      "Ġcheaper": 9041,
      "ĠDam": 9042,
      "Ġreserve": 9043,
      "Ġconvin": 9044,
      "Ġcher": 9045,
      "Ġvacc": 9046,
      "ĠPra": 9047,
      "Ġwestern": 9048,
      "Ġrust": 9049,
      "There": 9050,
      "iami": 9051,
      "ĠOnt": 9052,
      "ĠApart": 9053,
      "86": 9054,
      "Ġextraord": 9055,
      "ĠRepair": 9056,
      "Ġnursing": 9057,
      "ĠBell": 9058,
      "Ġsorry": 9059,
      "Ġlosses": 9060,
      "Ġmatching": 9061,
      "ĠSolutions": 9062,
      "awa": 9063,
      "ĠPH": 9064,
      "ĠiPad": 9065,
      "ĠFred": 9066,
      "Ġtwist": 9067,
      "Ġoperational": 9068,
      "Ġft": 9069,
      "Ġstayed": 9070,
      "Ġexclus": 9071,
      "Ġexpanded": 9072,
      "gent": 9073,
      "Ġsuffered": 9074,
      "ĠScotland": 9075,
      "Ġcharity": 9076,
      "nce": 9077,
      "Ġjur": 9078,
      "Ġlocks": 9079,
      "ĠEstate": 9080,
      "style": 9081,
      "rape": 9082,
      "iform": 9083,
      "Ġfluid": 9084,
      "Ġtoilet": 9085,
      "Ġstrengthen": 9086,
      "ccer": 9087,
      "Ġgrey": 9088,
      "cling": 9089,
      "ĠKong": 9090,
      "Ġfulfill": 9091,
      "ĠCit": 9092,
      "Ġexamination": 9093,
      "Ġconstructed": 9094,
      "rix": 9095,
      "Ġangle": 9096,
      "ĠOwn": 9097,
      "tons": 9098,
      "ĠAng": 9099,
      "Ġaband": 9100,
      "Ġmuscles": 9101,
      "ĠFront": 9102,
      "alo": 9103,
      "epend": 9104,
      "Ġcurriculum": 9105,
      "Ġcopies": 9106,
      "Ġbanking": 9107,
      "96": 9108,
      "ĠBul": 9109,
      "hr": 9110,
      "ĠCarl": 9111,
      "2019": 9112,
      "Ġaest": 9113,
      "Ġlegisl": 9114,
      "Ġchips": 9115,
      "bourne": 9116,
      "ĠCollection": 9117,
      "aid": 9118,
      "ĠPhilipp": 9119,
      "Ġdiscussions": 9120,
      "Ġcompatible": 9121,
      "ĠNC": 9122,
      "inst": 9123,
      "Ã¢": 9124,
      "nders": 9125,
      "Ġbroke": 9126,
      "ĠCredit": 9127,
      "Ġcollections": 9128,
      "inery": 9129,
      "Ġroots": 9130,
      "Ġparameters": 9131,
      "Ġcater": 9132,
      "uties": 9133,
      "Ġopinions": 9134,
      "ĠSO": 9135,
      "Don": 9136,
      "ĠComb": 9137,
      "Ġlegit": 9138,
      "ĠHouston": 9139,
      "Ġmargin": 9140,
      "Ġsuddenly": 9141,
      "Ġdiabetes": 9142,
      "Ġimpression": 9143,
      "Ġslots": 9144,
      "Ġhearts": 9145,
      "ylvania": 9146,
      "Ġcooked": 9147,
      "Ġmassage": 9148,
      "AND": 9149,
      "oir": 9150,
      "ĠServer": 9151,
      "Ġprohib": 9152,
      "ĠBoy": 9153,
      "Ġfounder": 9154,
      "Ġvine": 9155,
      "Ġsheets": 9156,
      "Ġentrepreneurs": 9157,
      "ĠBand": 9158,
      "Ġsituated": 9159,
      "stract": 9160,
      "Ġadmin": 9161,
      "Ġ;": 9162,
      "Ġdies": 9163,
      "Ġlob": 9164,
      "ĠExpress": 9165,
      "Ġediting": 9166,
      "Ġsed": 9167,
      "rug": 9168,
      "ouses": 9169,
      "acher": 9170,
      "Ġmechanical": 9171,
      "Ġtours": 9172,
      "Ġstamp": 9173,
      "ĠDE": 9174,
      "Ġprocessed": 9175,
      "ĠSaint": 9176,
      "ĠType": 9177,
      "Ġchest": 9178,
      "Ġadvertise": 9179,
      "Ġrarely": 9180,
      "Ġenhanced": 9181,
      "Ġtargets": 9182,
      "Ġtube": 9183,
      "Ġquantity": 9184,
      "ERE": 9185,
      "Ġspir": 9186,
      "Ġlandscap": 9187,
      "Ġexamine": 9188,
      "Ġlocally": 9189,
      "giving": 9190,
      "Ġhors": 9191,
      "Ġfiber": 9192,
      "Ġaddressed": 9193,
      "ĠHenry": 9194,
      "ĠCase": 9195,
      "Ġattempts": 9196,
      "ĠFox": 9197,
      "Ġworship": 9198,
      "Ġconclusion": 9199,
      "ĠHong": 9200,
      "ĠRh": 9201,
      "Ġfolder": 9202,
      "ĠCurrently": 9203,
      "Ġfewer": 9204,
      "ĠExplo": 9205,
      "Ġclubs": 9206,
      "Ġwake": 9207,
      "ĠDream": 9208,
      "ĠEliz": 9209,
      "bage": 9210,
      "Ġoppon": 9211,
      "Ġuniversities": 9212,
      "Ġhandy": 9213,
      "lined": 9214,
      "âĤ¬": 9215,
      "Ġproport": 9216,
      "Ġjun": 9217,
      "Ġ600": 9218,
      "Ġacquisition": 9219,
      "ĠCivil": 9220,
      "Ġnorthern": 9221,
      "athan": 9222,
      "Ġ':": 9223,
      "ĠLarge": 9224,
      "ĠGM": 9225,
      "Ġstood": 9226,
      "Ġtablet": 9227,
      "ĠChall": 9228,
      "bered": 9229,
      "ifi": 9230,
      "ilton": 9231,
      "Ġbehaviour": 9232,
      "Ġloud": 9233,
      "Ġpowers": 9234,
      "regon": 9235,
      "Ġtradem": 9236,
      "ĠUnivers": 9237,
      "ĠOcean": 9238,
      "ĠSound": 9239,
      "ĠProtection": 9240,
      "achelor": 9241,
      "ĠHistor": 9242,
      "Ġassistant": 9243,
      "ĠRon": 9244,
      "ĠKenn": 9245,
      "Ġstruggling": 9246,
      "And": 9247,
      "Ġpic": 9248,
[...]
